[PAD]	0
[UNK]	0
[BOS]	0
[EOS]	0
[SEP]	0
[CLS]	0
[MASK]	0
▁1	-0
▁이	-1
으로	-2
에서	-3
▁있	-4
▁2	-5
▁그	-6
▁대	-7
▁사	-8
이다	-9
었다	-10
▁수	-11
▁지	-12
▁20	-13
▁19	-14
▁가	-15
▁시	-16
▁기	-17
▁아	-18
▁전	-19
▁하	-20
했다	-21
▁다	-22
▁있다	-23
▁제	-24
▁일	-25
하였	-26
▁중	-27
▁한	-28
▁정	-29
▁주	-30
하는	-31
▁것	-32
▁자	-33
▁인	-34
되었다	-35
▁공	-36
▁위	-37
▁유	-38
▁경	-39
▁보	-40
▁3	-41
하고	-42
▁등	-43
▁부	-44
하였다	-45
▁조	-46
▁미	-47
하여	-48
▁발	-49
▁동	-50
▁선	-51
▁영	-52
▁모	-53
▁나	-54
으며	-55
▁연	-56
▁마	-57
▁의	-58
한다	-59
▁오	-60
▁소	-61
에는	-62
▁201	-63
▁스	-64
▁고	-65
▁개	-66
▁세	-67
▁구	-68
▁비	-69
▁도	-70
▁상	-71
▁국	-72
▁후	-73
▁서	-74
▁여	-75
▁4	-76
▁때	-77
▁200	-78
▁해	-79
▁관	-80
▁프	-81
▁성	-82
▁있는	-83
▁대한	-84
▁신	-85
부터	-86
▁5	-87
▁"	-88
▁(	-89
▁또	-90
▁방	-91
지만	-92
▁않	-93
▁바	-94
되어	-95
▁통	-96
까지	-97
▁만	-98
▁같	-99
▁무	-100
▁장	-101
▁남	-102
▁출	-103
에게	-104
▁현	-105
▁교	-106
▁내	-107
▁포	-108
적인	-109
▁우	-110
▁결	-111
▁《	-112
▁역	-113
▁거	-114
▁6	-115
적으로	-116
▁문	-117
된다	-118
▁10	-119
이라	-120
▁최	-121
▁작	-122
▁생	-123
▁불	-124
▁노	-125
학교	-126
▁원	-127
국의	-128
▁진	-129
▁어	-130
▁알	-131
▁당	-132
▁7	-133
▁8	-134
▁반	-135
▁따	-136
▁파	-137
되었	-138
▁분	-139
▁사용	-140
▁계	-141
▁강	-142
▁리	-143
▁받	-144
▁없	-145
들이	-146
or	-147
▁두	-148
들은	-149
▁말	-150
면서	-151
▁실	-152
에서는	-153
▁배	-154
▁단	-155
년에	-156
하기	-157
er	-158
▁이후	-159
▁'	-160
▁명	-161
▁9	-162
▁설	-163
▁함	-164
00	-165
▁예	-166
▁차	-167
▁재	-168
),	-169
▁에	-170
▁안	-171
▁한다	-172
하게	-173
▁다음	-174
▁데	-175
▁199	-176
았다	-177
▁로	-178
▁일본	-179
▁요	-180
▁특	-181
▁음	-182
▁18	-183
였다	-184
▁감	-185
▁종	-186
▁12	-187
▁초	-188
()	-189
on	-190
▁추	-191
▁독	-192
▁카	-193
▁그는	-194
▁다른	-195
리아	-196
▁군	-197
▁많	-198
▁및	-199
▁S	-200
an	-201
▁라	-202
스트	-203
in	-204
▁더	-205
으나	-206
▁~	-207
▁지역	-208
▁활	-209
▁대한민	-210
▁태	-211
▁건	-212
▁타	-213
▁참	-214
▁위해	-215
▁같은	-216
▁김	-217
▁입	-218
는데	-219
▁되었다	-220
▁운	-221
la	-222
▁형	-223
▁매	-224
▁11	-225
이며	-226
주의	-227
▁코	-228
▁미국	-229
▁평	-230
레이	-231
▁양	-232
▁열	-233
▁그리	-234
▁베	-235
▁올	-236
▁산	-237
▁시작	-238
▁적	-239
▁행	-240
▁C	-241
▁크	-242
▁피	-243
들의	-244
▁프로	-245
▁과	-246
▁때문	-247
▁번	-248
▁)	-249
▁A	-250
▁북	-251
▁본	-252
들어	-253
▁호	-254
들을	-255
▁승	-256
되는	-257
▁총	-258
▁왕	-259
▁따라	-260
▁목	-261
▁또한	-262
▁화	-263
라는	-264
▁회	-265
하며	-266
▁198	-267
▁사람	-268
▁함께	-269
▁변	-270
기도	-271
▁그러	-272
▁임	-273
▁각	-274
▁외	-275
▁M	-276
▁표	-277
▁영화	-278
▁약	-279
시아	-280
▁달	-281
▁처	-282
▁속	-283
▁물	-284
라고	-285
▁자신	-286
이나	-287
▁게	-288
▁경우	-289
en	-290
▁현재	-291
19	-292
▁f	-293
▁드	-294
하지	-295
▁직	-296
▁그의	-297
▁간	-298
▁선수	-299
▁새	-300
▁F	-301
▁가장	-302
▁학	-303
▁사이	-304
ar	-305
▁위치	-306
▁이름	-307
▁기록	-308
▁민	-309
▁의해	-310
▁집	-311
기에	-312
▁세계	-313
▁또는	-314
▁저	-315
▁레	-316
▁하나	-317
하다	-318
▁메	-319
▁당시	-320
▁때문에	-321
▁존	-322
스의	-323
20	-324
▁확	-325
에도	-326
mu	-327
▁T	-328
▁것을	-329
일에	-330
▁항	-331
▁체	-332
기를	-333
되고	-334
▁점	-335
▁197	-336
▁15	-337
▁것으로	-338
▁국가	-339
▁그러나	-340
▁있었다	-341
▁뒤	-342
▁for	-343
▁한국	-344
▁박	-345
▁브	-346
▁토	-347
▁했다	-348
▁있으며	-349
▁투	-350
이라고	-351
al	-352
mula	-353
▁복	-354
▁것이	-355
▁필	-356
▁통해	-357
▁16	-358
ti	-359
▁B	-360
리는	-361
▁축	-362
▁formula	-363
졌다	-364
지는	-365
▁된다	-366
▁합	-367
▁못	-368
▁철	-369
▁증	-370
했고	-371
▁디	-372
▁광	-373
▁그리고	-374
▁프랑	-375
▁청	-376
▁천	-377
▁활동	-378
▁야	-379
▁196	-380
es	-381
▁17	-382
▁근	-383
▁치	-384
▁법	-385
▁판	-386
▁많은	-387
▁조선	-388
▁D	-389
▁첫	-390
▁언	-391
스는	-392
▁버	-393
▁플	-394
▁금	-395
▁편	-396
▁포함	-397
▁살	-398
▁트	-399
▁가지	-400
▁뜻	-401
▁다음과	-402
이라는	-403
▁심	-404
리를	-405
▁것이다	-406
▁들어	-407
▁창	-408
▁돌	-409
▁높	-410
▁삼	-411
▁아니	-412
▁P	-413
(,	-414
이었다	-415
하면서	-416
랜드	-417
▁I	-418
하였고	-419
he	-420
는다	-421
▁하는	-422
▁페	-423
▁완	-424
▁쓰	-425
▁애	-426
▁대해	-427
▁황	-428
▁경기	-429
▁있었	-430
▁K	-431
▁네	-432
▁여러	-433
▁충	-434
등학교	-435
▁194	-436
▁‘	-437
▁할	-438
▁대한민국	-439
▁14	-440
▁다시	-441
▁루	-442
▁제작	-443
개의	-444
▁대한민국의	-445
▁연구	-446
▁L	-447
사를	-448
▁인구	-449
▁시즌	-450
대로	-451
▁등이	-452
▁사회	-453
▁큰	-454
▁감독	-455
▁독일	-456
▁병	-457
되었고	-458
▁일부	-459
▁모두	-460
보다	-461
라이	-462
로서	-463
▁모든	-464
이고	-465
▁되	-466
▁패	-467
▁13	-468
km	-469
▁백	-470
상을	-471
▁팀	-472
▁클	-473
이는	-474
▁195	-475
▁서울	-476
▁용	-477
▁권	-478
▁순	-479
▁취	-480
▁도시	-481
▁처음	-482
위를	-483
is	-484
▁히	-485
▁알려	-486
니아	-487
▁죽	-488
ic	-489
▁발매	-490
성을	-491
▁채	-492
장을	-493
▁R	-494
▁아이	-495
▁G	-496
▁은	-497
▁규	-498
▁중국	-499
년부터	-500
▁위한	-501
▁친	-502
지를	-503
▁정부	-504
했으며	-505
이었	-506
자가	-507
▁동안	-508
▁식	-509
▁하였다	-510
회의	-511
▁구성	-512
▁이상	-513
▁테	-514
▁전쟁	-515
▁이루	-516
▁H	-517
▁대표	-518
부분	-519
대의	-520
▁배우	-521
▁같다	-522
▁존재	-523
이자	-524
▁영국	-525
▁끝	-526
▁러	-527
▁앞	-528
▁정치	-529
▁이어	-530
거나	-531
▁손	-532
▁등의	-533
▁축구	-534
▁자신의	-535
▁게임	-536
▁N	-537
▁프랑스	-538
▁일반	-539
시에	-540
리에	-541
▁음반	-542
▁기준	-543
▁이용	-544
력을	-545
▁허	-546
▁리그	-547
났다	-548
도의	-549
▁개발	-550
at	-551
▁작품	-552
▁뉴	-553
▁나타	-554
▁있어	-555
▁가능	-556
▁길	-557
▁것은	-558
▁환	-559
▁즉	-560
▁E	-561
▁문제	-562
도로	-563
le	-564
re	-565
000	-566
년에는	-567
▁맡	-568
리스	-569
▁중심	-570
▁캐	-571
▁이러	-572
▁온	-573
▁새로	-574
▁월	-575
▁접	-576
▁이러한	-577
it	-578
ou	-579
년대	-580
▁논	-581
▁협	-582
▁준	-583
▁U	-584
▁발견	-585
▁번째	-586
▁걸	-587
▁-	-588
▁맞	-589
▁〈	-590
▁이는	-591
▁국제	-592
▁193	-593
▁30	-594
도록	-595
나라	-596
▁밀	-597
▁주장	-598
▁농	-599
되었으며	-600
세기	-601
▁발표	-602
▁미국의	-603
통령	-604
▁설치	-605
▁대부분	-606
들과	-607
로부터	-608
▁사망	-609
(1	-610
▁태어	-611
▁의미	-612
▁곳	-613
▁갖	-614
▁하지만	-615
하면	-616
▁음악	-617
▁면	-618
▁검	-619
▁등을	-620
▁W	-621
로는	-622
시키	-623
▁대회	-624
▁영향	-625
월에	-626
▁향	-627
▁볼	-628
▁잘	-629
자의	-630
년까지	-631
▁발생	-632
▁키	-633
▁참여	-634
리카	-635
리가	-636
명의	-637
▁역사	-638
▁방송	-639
▁별	-640
el	-641
이트	-642
▁사건	-643
군의	-644
란드	-645
기는	-646
기의	-647
▁폭	-648
다는	-649
에서도	-650
▁전투	-651
위원	-652
▁선거	-653
스를	-654
했던	-655
▁밝	-656
▁담	-657
디오	-658
▁위치한	-659
▁막	-660
▁공격	-661
서는	-662
▁2010	-663
▁이를	-664
▁지방	-665
다고	-666
▁t	-667
기가	-668
▁대통령	-669
▁우승	-670
▁되어	-671
▁귀	-672
정을	-673
▁진행	-674
▁결과	-675
쪽으로	-676
▁육	-677
▁홍	-678
성이	-679
st	-680
▁프로그	-681
▁문화	-682
들에게	-683
▁러시아	-684
▁얻	-685
자는	-686
▁최초	-687
▁관련	-688
▁효	-689
인의	-690
리그	-691
▁대학	-692
▁하고	-693
▁곡	-694
어진	-695
▁특히	-696
▁극	-697
▁관계	-698
▁유럽	-699
om	-700
▁다양	-701
자를	-702
21	-703
▁이전	-704
▁경제	-705
스가	-706
하였으며	-707
▁줄	-708
와의	-709
▁날	-710
▁25	-711
▁인해	-712
ol	-713
▁이에	-714
림픽	-715
▁해당	-716
▁석	-717
▁새로운	-718
▁설립	-719
도를	-720
▁암	-721
▁앨	-722
▁<	-723
리의	-724
스터	-725
사가	-726
▁블	-727
-1	-728
▁책	-729
▁헤	-730
▁절	-731
▁일어	-732
▁엔	-733
▁폐	-734
▁부분	-735
▁시간	-736
요한	-737
▁받았다	-738
라마	-739
▁질	-740
▁갈	-741
렸다	-742
▁측	-743
이스	-744
자로	-745
▁그녀	-746
번째	-747
ch	-748
▁글	-749
(19	-750
▁이탈	-751
▁생각	-752
▁수도	-753
▁형태	-754
대를	-755
▁된	-756
tion	-757
▁2008	-758
▁주로	-759
▁커	-760
르크	-761
▁지원	-762
▁올림픽	-763
▁만들어	-764
▁“	-765
▁독립	-766
르는	-767
▁사실	-768
▁기술	-769
▁같이	-770
▁좋	-771
▁참가	-772
▁교육	-773
▁로마	-774
am	-775
▁소속	-776
▁슈	-777
ing	-778
▁이것	-779
▁니	-780
과의	-781
▁봉	-782
▁출신	-783
▁프로그램	-784
▁범	-785
▁받아	-786
▁침	-787
▁누	-788
▁결정	-789
▁출연	-790
▁머	-791
▁자유	-792
학자	-793
▁중앙	-794
식을	-795
▁계속	-796
il	-797
▁O	-798
▁21	-799
지로	-800
리즈	-801
▁와	-802
▁탈	-803
▁2011	-804
화국	-805
▁2012	-806
▁등장	-807
므로	-808
▁성공	-809
▁않았다	-810
▁데뷔	-811
,000	-812
도는	-813
▁운영	-814
비아	-815
▁상태	-816
▁이탈리아	-817
▁있고	-818
▁구조	-819
▁매우	-820
▁2007	-821
▁골	-822
▁잡	-823
이션	-824
명을	-825
▁2009	-826
▁생산	-827
▁가지고	-828
▁탄	-829
인이	-830
드는	-831
▁차지	-832
▁벌	-833
▁2014	-834
ro	-835
프트	-836
▁혼	-837
▁싱	-838
▁몇	-839
et	-840
10	-841
이지	-842
▁J	-843
부의	-844
▁쿠	-845
▁있던	-846
▁넘	-847
처럼	-848
사의	-849
us	-850
우스	-851
▁아버	-852
전을	-853
했지만	-854
되지	-855
▁24	-856
▁아니라	-857
▁케	-858
▁100	-859
기로	-860
다가	-861
▁악	-862
▁2018	-863
▁없는	-864
▁여성	-865
▁난	-866
▁2013	-867
▁만들	-868
으로서	-869
of	-870
▁전체	-871
▁아들	-872
▁돌아	-873
▁타이	-874
대에	-875
▁제공	-876
▁아래	-877
▁송	-878
▁급	-879
▁들	-880
▁2015	-881
▁폴	-882
▁따르	-883
▁일본의	-884
▁찾	-885
▁주요	-886
▁섬	-887
▁없다	-888
왔다	-889
대학교	-890
도가	-891
명이	-892
▁라이	-893
▁23	-894
▁터	-895
장이	-896
▁운동	-897
as	-898
▁0	-899
▁2016	-900
▁지정	-901
에서의	-902
▁계획	-903
하기도	-904
스타	-905
사는	-906
▁22	-907
▁결국	-908
▁최고	-909
해서	-910
이의	-911
▁윤	-912
스템	-913
▁192	-914
▁조직	-915
▁행정	-916
▁다양한	-917
▁않고	-918
▁업	-919
일부터	-920
▁팔	-921
▁떨	-922
▁고려	-923
권을	-924
▁데이	-925
▁2017	-926
스크	-927
지의	-928
하자	-929
▁한편	-930
부에	-931
화를	-932
▁이유	-933
▁떠	-934
▁드라마	-935
▁2006	-936
운데	-937
▁역할	-938
군은	-939
냈다	-940
▁방법	-941
▁많이	-942
▁둘	-943
ra	-944
간의	-945
▁후보	-946
원을	-947
▁앨범	-948
de	-949
▁28	-950
▁콘	-951
▁스페	-952
▁빠	-953
수를	-954
▁26	-955
FA	-956
수의	-957
▁스타	-958
▁가리	-959
▁V	-960
어로	-961
스와	-962
▁연결	-963
진다	-964
▁열린	-965
됐다	-966
자인	-967
▁[	-968
▁내용	-969
▁거의	-970
▁of	-971
▁힘	-972
음을	-973
▁유명	-974
나는	-975
지가	-976
▁좌	-977
▁27	-978
원의	-979
▁빌	-980
대표	-981
▁출전	-982
▁묘	-983
▁2000	-984
▁2019	-985
▁남아	-986
▁월드	-987
▁인터	-988
▁마지	-989
▁국민	-990
으로써	-991
▁가운데	-992
장은	-993
▁따르면	-994
▁몸	-995
▁않는다	-996
▁시리즈	-997
▁대학교	-998
▁공식	-999
선의	-1000
▁칼	-1001
인다	-1002
▁추가	-1003
▁헌	-1004
인민	-1005
")	-1006
대학	-1007
점을	-1008
▁영향을	-1009
▁잠	-1010
남도	-1011
▁마이	-1012
어를	-1013
▁높은	-1014
▁시스템	-1015
▁뜻은	-1016
▁마지막	-1017
장으로	-1018
▁표현	-1019
▁각각	-1020
이드	-1021
▁모습	-1022
▁공개	-1023
▁필요	-1024
▁이루어	-1025
였던	-1026
22	-1027
했으나	-1028
and	-1029
머니	-1030
가는	-1031
하려	-1032
▁하여	-1033
▁노래	-1034
▁컴	-1035
▁엘	-1036
▁그룹	-1037
하던	-1038
▁이미	-1039
▁수상	-1040
▁과정	-1041
으로부터	-1042
▁격	-1043
▁바이	-1044
사로	-1045
▁얼	-1046
BS	-1047
▁레이	-1048
▁191	-1049
리고	-1050
▁이름을	-1051
ed	-1052
▁보고	-1053
▁작은	-1054
▁녹	-1055
지에	-1056
스로	-1057
▁알려져	-1058
▁2005	-1059
이가	-1060
▁능	-1061
시의	-1062
▁그것	-1063
▁따라서	-1064
▁진출	-1065
▁정보	-1066
전에	-1067
▁2020	-1068
성의	-1069
수가	-1070
▁졸	-1071
해야	-1072
민주	-1073
▁직접	-1074
▁190	-1075
었고	-1076
원이	-1077
▁밴	-1078
대한	-1079
제로	-1080
("	-1081
으로는	-1082
▁붙	-1083
▁몰	-1084
▁임명	-1085
▁쇼	-1086
▁인도	-1087
구의	-1088
▁않은	-1089
▁기능	-1090
▁유지	-1091
▁이야	-1092
력이	-1093
▁인정	-1094
▁건설	-1095
시켰	-1096
▁센	-1097
군에	-1098
▁평가	-1099
▁29	-1100
▁보여	-1101
▁대신	-1102
ac	-1103
운동	-1104
ri	-1105
▁오스트	-1106
▁시대	-1107
▁상황	-1108
▁프리	-1109
▁c	-1110
위원회	-1111
▁기원	-1112
전히	-1113
▁철도	-1114
초등학교	-1115
▁형성	-1116
▁먹	-1117
▁영화이다	-1118
▁뛰	-1119
_1	-1120
200	-1121
▁변경	-1122
▁2004	-1123
▁개최	-1124
텔레	-1125
상의	-1126
지고	-1127
▁브라	-1128
르트	-1129
들에	-1130
).	-1131
제를	-1132
▁기업	-1133
▁눈	-1134
▁자연	-1135
▁m	-1136
▁중요한	-1137
▁퍼	-1138
▁,	-1139
▁활약	-1140
▁아르	-1141
위에	-1142
▁건물	-1143
▁모델	-1144
▁그가	-1145
▁제국	-1146
▁풍	-1147
▁않았	-1148
인은	-1149
▁대전	-1150
▁정의	-1151
▁생활	-1152
▁항공	-1153
▁플레이	-1154
▁관한	-1155
▁경상	-1156
어는	-1157
갔다	-1158
▁핵	-1159
▁민주	-1160
스탄	-1161
▁공동	-1162
군이	-1163
인을	-1164
▁되는	-1165
▁그리스	-1166
▁후에	-1167
▁티	-1168
▁낮	-1169
▁압	-1170
▁시작했다	-1171
▁이론	-1172
선을	-1173
▁발전	-1174
▁학교	-1175
문화	-1176
치는	-1177
사에	-1178
▁서로	-1179
일까지	-1180
▁정도	-1181
▁결혼	-1182
▁크게	-1183
트로	-1184
▁비롯	-1185
ent	-1186
▁홈	-1187
▁시절	-1188
레스	-1189
수로	-1190
▁졸업	-1191
▁있는데	-1192
▁싱글	-1193
▁응	-1194
비전	-1195
▁방식	-1196
▁인구는	-1197
세의	-1198
▁가진	-1199
▁여자	-1200
▁사이에	-1201
킨다	-1202
▁인물	-1203
▁울	-1204
50	-1205
▁워	-1206
▁혹	-1207
▁희	-1208
▁기준으로	-1209
▁역시	-1210
부를	-1211
▁일으	-1212
되면서	-1213
프리카	-1214
▁31	-1215
▁느	-1216
▁사업	-1217
전에서	-1218
▁말한다	-1219
▁지금	-1220
▁뿐	-1221
▁노동	-1222
▁관리	-1223
계를	-1224
▁분류	-1225
▁반대	-1226
▁태어났다	-1227
▁요구	-1228
운드	-1229
▁기반	-1230
▁딸	-1231
》(	-1232
북도	-1233
▁원래	-1234
치를	-1235
▁서비	-1236
부는	-1237
.5	-1238
un	-1239
▁군사	-1240
▁기타	-1241
원은	-1242
▁않는	-1243
▁마을	-1244
▁the	-1245
적은	-1246
인민공	-1247
원으로	-1248
▁상대	-1249
▁현대	-1250
있다	-1251
▁만든	-1252
▁출시	-1253
▁학생	-1254
▁기간	-1255
되며	-1256
▁벨	-1257
나다	-1258
ur	-1259
ig	-1260
▁지도	-1261
▁연합	-1262
리오	-1263
▁지역의	-1264
▁색	-1265
▁판매	-1266
문을	-1267
▁역할을	-1268
▁거쳐	-1269
▁아닌	-1270
임을	-1271
▁콜	-1272
▁계약	-1273
▁나라	-1274
▁긴	-1275
▁동시에	-1276
▁운행	-1277
▁FC	-1278
수는	-1279
▁2002	-1280
▁어떤	-1281
장의	-1282
▁특징	-1283
▁제외	-1284
제가	-1285
▁이동	-1286
시간	-1287
▁자동	-1288
▁수행	-1289
ation	-1290
▁소련	-1291
른다	-1292
▁초기	-1293
▁기본	-1294
▁개인	-1295
▁2003	-1296
▁놓	-1297
▁전국	-1298
상이	-1299
대가	-1300
os	-1301
▁전통	-1302
▁처음으로	-1303
▁텔레	-1304
▁「	-1305
대는	-1306
▁비판	-1307
ve	-1308
▁있다고	-1309
드의	-1310
▁최초의	-1311
▁증가	-1312
▁중화	-1313
▁50	-1314
▁이르	-1315
▁지구	-1316
했는데	-1317
▁지하	-1318
이었던	-1319
▁빈	-1320
▁부산	-1321
회를	-1322
."	-1323
체의	-1324
주는	-1325
▁휴	-1326
▁개의	-1327
▁잉	-1328
상으로	-1329
▁하였	-1330
▁s	-1331
.1	-1332
um	-1333
▁퇴	-1334
이를	-1335
정한	-1336
▁일반적으로	-1337
학적	-1338
▁푸	-1339
제의	-1340
▁샤	-1341
가와	-1342
▁맥	-1343
장에	-1344
▁웨	-1345
광역	-1346
▁겸	-1347
▁전문	-1348
하는데	-1349
자와	-1350
▁:	-1351
▁목록	-1352
▁경기도	-1353
ot	-1354
▁189	-1355
▁여기	-1356
▁도쿄	-1357
시마	-1358
ad	-1359
군을	-1360
▁배우이다	-1361
▁인간	-1362
▁연방	-1363
▁그래	-1364
]]	-1365
▁공간	-1366
명은	-1367
이기도	-1368
▁슬	-1369
▁도입	-1370
▁민족	-1371
▁승강	-1372
린다	-1373
▁싸	-1374
▁1,	-1375
▁다이	-1376
▁1990	-1377
▁기관	-1378
중에	-1379
▁애니	-1380
▁종교	-1381
단의	-1382
▁명칭	-1383
▁있을	-1384
▁견	-1385
▁비슷	-1386
▁의한	-1387
▁p	-1388
트를	-1389
▁특별	-1390
▁혹은	-1391
od	-1392
소를	-1393
어가	-1394
장에서	-1395
▁정책	-1396
혔다	-1397
특별	-1398
▁기존	-1399
▁산업	-1400
하였으나	-1401
▁공연	-1402
물을	-1403
▁스위	-1404
역이다	-1405
성은	-1406
▁달리	-1407
▁망	-1408
격을	-1409
ter	-1410
▁혁	-1411
트의	-1412
▁엄	-1413
체를	-1414
▁보통	-1415
카이	-1416
ow	-1417
하지만	-1418
▁작업	-1419
▁[[	-1420
▁월드컵	-1421
▁설명	-1422
201	-1423
▁이끌	-1424
▁지나	-1425
드로	-1426
▁궁	-1427
적을	-1428
▁이때	-1429
니다	-1430
30	-1431
▁위하여	-1432
▁나오	-1433
▁넓	-1434
▁추정	-1435
▁작곡	-1436
▁훈	-1437
독교	-1438
▁야구	-1439
키는	-1440
▁어머니	-1441
▁하며	-1442
▁지배	-1443
▁보호	-1444
일한	-1445
▁현재의	-1446
▁획	-1447
▁될	-1448
어의	-1449
▁사랑	-1450
▁바로	-1451
▁역임	-1452
되었던	-1453
야마	-1454
▁과거	-1455
과는	-1456
▁가수	-1457
▁옮	-1458
▁노선	-1459
리와	-1460
BC	-1461
▁실시	-1462
▁변화	-1463
▁주변	-1464
서를	-1465
id	-1466
스코	-1467
▁경기에서	-1468
▁적용	-1469
▁탐	-1470
▁경찰	-1471
▁국내	-1472
▁탑	-1473
드를	-1474
위로	-1475
▁아버지	-1476
▁받은	-1477
ec	-1478
▁모양	-1479
▁소설	-1480
▁40	-1481
▁뮤	-1482
르게	-1483
트는	-1484
▁있다는	-1485
▁지휘	-1486
▁이것은	-1487
▁2021	-1488
리지	-1489
스에	-1490
▁최대	-1491
▁전라	-1492
무를	-1493
▁흔	-1494
▁되고	-1495
▁행동	-1496
경기	-1497
▁확인	-1498
▁통합	-1499
학과	-1500
가지	-1501
리로	-1502
▁규모	-1503
▁비교	-1504
도에	-1505
▁국가대표	-1506
연구	-1507
피언	-1508
쪽에	-1509
마다	-1510
있는	-1511
▁받았	-1512
▁2001	-1513
메이션	-1514
▁텔레비전	-1515
.2	-1516
▁지지	-1517
▁이적	-1518
시켰다	-1519
동안	-1520
▁보내	-1521
▁득	-1522
▁뉴욕	-1523
▁가족	-1524
▁교황	-1525
명이다	-1526
▁대부분의	-1527
▁없이	-1528
op	-1529
▁캐나다	-1530
▁피해	-1531
▁그를	-1532
쳤다	-1533
▁환경	-1534
의를	-1535
ir	-1536
퓨터	-1537
관은	-1538
60	-1539
▁선정	-1540
▁분야	-1541
▁대체	-1542
▁때문이다	-1543
▁상당	-1544
▁중심으로	-1545
▁열차	-1546
▁기원전	-1547
▁건축	-1548
▁염	-1549
▁차량	-1550
▁윌	-1551
▁먼	-1552
하거나	-1553
▁방향	-1554
▁이상의	-1555
▁가까	-1556
▁주연	-1557
년의	-1558
체가	-1559
정에	-1560
▁감독의	-1561
회는	-1562
18	-1563
사와	-1564
▁우주	-1565
▁스페인	-1566
▁착	-1567
▁담당	-1568
▁언급	-1569
▁멤	-1570
▁너	-1571
호를	-1572
▁밖	-1573
단을	-1574
크로	-1575
방송	-1576
▁떨어	-1577
▁풀	-1578
제는	-1579
▁곧	-1580
▁오늘	-1581
▁기독교	-1582
기관	-1583
했다고	-1584
▁옥	-1585
ag	-1586
▁챔	-1587
▁개념	-1588
드리	-1589
em	-1590
▁숙	-1591
▁FI	-1592
▁태양	-1593
호로	-1594
광역시	-1595
▁실패	-1596
.0	-1597
)·	-1598
▁획득	-1599
▁있지만	-1600
▁올라	-1601
▁자기	-1602
▁1980	-1603
▁어느	-1604
▁자신이	-1605
▁받고	-1606
고등학교	-1607
세는	-1608
▁(19	-1609
▁몽	-1610
▁수는	-1611
▁어린	-1612
▁부르	-1613
▁도로	-1614
자들은	-1615
▁선택	-1616
▁연주	-1617
▁제작된	-1618
▁갑	-1619
류의	-1620
▁찾아	-1621
했을	-1622
이로	-1623
▁TV	-1624
▁세포	-1625
▁방영	-1626
▁애니메이션	-1627
▁이런	-1628
▁되었고	-1629
▁이와	-1630
▁평균	-1631
호는	-1632
ver	-1633
▁낙	-1634
▁멤버	-1635
▁1999	-1636
▁두고	-1637
▁선출	-1638
▁기념	-1639
▁데이터	-1640
▁컴퓨터	-1641
움을	-1642
글랜드	-1643
23	-1644
▁d	-1645
▁늘	-1646
▁Y	-1647
▁부족	-1648
▁조사	-1649
oc	-1650
▁칸	-1651
인으로	-1652
▁클럽	-1653
▁활동을	-1654
th	-1655
당의	-1656
▁최종	-1657
▁챔피언	-1658
▁넣	-1659
▁나가	-1660
▁베이	-1661
▁발매된	-1662
▁언어	-1663
원에	-1664
트리	-1665
인민공화국	-1666
▁속하는	-1667
▁1998	-1668
▁걸쳐	-1669
ia	-1670
▁없었다	-1671
부가	-1672
일에는	-1673
▁사고	-1674
▁그녀는	-1675
▁작가	-1676
단은	-1677
▁흐	-1678
성과	-1679
40	-1680
관을	-1681
▁b	-1682
▁반응	-1683
기와	-1684
ce	-1685
치가	-1686
트남	-1687
▁충청	-1688
종의	-1689
적이	-1690
성에	-1691
80	-1692
▁과학	-1693
▁앤	-1694
▁수록	-1695
▁런	-1696
▁위원	-1697
인이다	-1698
▁거주	-1699
조의	-1700
▁예정	-1701
메달	-1702
겼다	-1703
렇게	-1704
메리카	-1705
▁그들의	-1706
▁효과	-1707
면에	-1708
▁지속	-1709
교육	-1710
심을	-1711
렀다	-1712
15	-1713
계의	-1714
▁더욱	-1715
스카	-1716
▁최근	-1717
상은	-1718
▁입단	-1719
▁이름은	-1720
포츠	-1721
▁잔	-1722
일을	-1723
The	-1724
루스	-1725
▁솔	-1726
으면	-1727
▁지역에	-1728
세가	-1729
시켜	-1730
▁유사	-1731
▁사이의	-1732
ay	-1733
▁동물	-1734
▁다음을	-1735
▁시민	-1736
▁마르	-1737
프로	-1738
구하고	-1739
▁개봉	-1740
▁하나이다	-1741
▁등에	-1742
▁하다	-1743
▁말했다	-1744
하도록	-1745
▁출판	-1746
▁전에	-1747
▁있었던	-1748
▁칭	-1749
화가	-1750
▁땅	-1751
▁있어서	-1752
▁FIFA	-1753
역을	-1754
▁옛	-1755
▁잉글랜드	-1756
im	-1757
▁관할	-1758
난다	-1759
▁불가	-1760
리에서	-1761
▁조건	-1762
▁것이라고	-1763
구에	-1764
널리	-1765
▁윈	-1766
▁결승	-1767
▁에너	-1768
▁최초로	-1769
▁1997	-1770
▁내려	-1771
나무	-1772
이어	-1773
▁국회의	-1774
▁연속	-1775
일본	-1776
▁보인다	-1777
▁예를	-1778
▁정당	-1779
시키는	-1780
▁맺	-1781
▁대하여	-1782
▁소유	-1783
▁액	-1784
▁선언	-1785
▁뛰어	-1786
▁물리	-1787
▁어려	-1788
.3	-1789
▁형식	-1790
▁구간	-1791
▁전기	-1792
세를	-1793
쪽으로는	-1794
▁조지	-1795
한다는	-1796
▁교회	-1797
▁1995	-1798
▁지정되었다	-1799
▁포르	-1800
▁등으로	-1801
▁가리킨다	-1802
스테	-1803
▁표준	-1804
▁폴란드	-1805
▁목표	-1806
개월	-1807
▁포함한	-1808
덜란드	-1809
상에	-1810
▁알려진	-1811
▁1996	-1812
구를	-1813
▁발매되었다	-1814
▁명령	-1815
cm	-1816
▁흑	-1817
▁공산	-1818
▁선발	-1819
▁점령	-1820
▁좋은	-1821
▁자료	-1822
스에서	-1823
이에	-1824
▁예술	-1825
자들이	-1826
체는	-1827
▁이들은	-1828
▁대중	-1829
▁헌법	-1830
▁이해	-1831
명으로	-1832
▁국가대표팀	-1833
소가	-1834
이란	-1835
▁아시아	-1836
16	-1837
학을	-1838
▁엔진	-1839
▁있게	-1840
모토	-1841
지방	-1842
랐다	-1843
▁컨	-1844
▁움	-1845
▁·	-1846
이지만	-1847
▁후반	-1848
▁부문	-1849
동에	-1850
▁정규	-1851
▁불구하고	-1852
.)	-1853
함으로써	-1854
▁1970	-1855
▁제한	-1856
▁덴	-1857
부르크	-1858
스턴	-1859
▁치료	-1860
▁교통	-1861
12	-1862
▁오늘날	-1863
mm	-1864
▁국립	-1865
내는	-1866
▁그들은	-1867
▁맡았다	-1868
▁고대	-1869
▁결합	-1870
▁소비	-1871
▁밝혔다	-1872
▁X	-1873
라도	-1874
라의	-1875
▁분석	-1876
▁사용하는	-1877
》,	-1878
만을	-1879
70	-1880
▁레코	-1881
▁버전	-1882
▁명의	-1883
▁네덜란드	-1884
▁잃	-1885
▁미국에서	-1886
▁이유로	-1887
▁1994	-1888
▁크리스	-1889
▁정신	-1890
▁팬	-1891
만이	-1892
▁거두	-1893
▁깊	-1894
▁모습을	-1895
▁이름으로	-1896
▁제안	-1897
호선	-1898
▁St	-1899
▁밴드	-1900
ul	-1901
▁설계	-1902
일랜드	-1903
▁의미한다	-1904
▁서울특별	-1905
▁징	-1906
중학교	-1907
되었으나	-1908
▁영국의	-1909
▁2022	-1910
▁메이	-1911
정부	-1912
스티	-1913
▁인천	-1914
레일	-1915
▁통과	-1916
되기	-1917
▁공화국	-1918
▁익	-1919
바이	-1920
▁실험	-1921
▁대구	-1922
▁분리	-1923
▁188	-1924
▁1992	-1925
▁믿	-1926
웠다	-1927
▁경험	-1928
▁북한	-1929
사회	-1930
▁겨	-1931
▁흥	-1932
▁시설	-1933
▁km	-1934
년간	-1935
골을	-1936
었으며	-1937
▁은퇴	-1938
▁하나로	-1939
▁승리	-1940
스키	-1941
▁나머	-1942
▁주민	-1943
월에는	-1944
▁프로젝	-1945
월부터	-1946
▁완전히	-1947
스토	-1948
▁정확	-1949
▁돈	-1950
▁웹	-1951
가의	-1952
▁드러	-1953
▁홀	-1954
▁구분	-1955
베이	-1956
▁우리	-1957
▁혈	-1958
주에	-1959
크라	-1960
선거	-1961
▁확장	-1962
▁수준	-1963
▁강화	-1964
▁사상	-1965
▁제조	-1966
▁여겨	-1967
▁휘	-1968
▁끌	-1969
▁베트남	-1970
▁성장	-1971
▁전자	-1972
▁달러	-1973
정이	-1974
▁요시	-1975
▁방문	-1976
▁덕	-1977
학의	-1978
▁왜	-1979
원에서	-1980
▁조약	-1981
금을	-1982
단이	-1983
▁하나의	-1984
지지	-1985
▁크로	-1986
▁페르	-1987
시대	-1988
비를	-1989
지와	-1990
카와	-1991
▁실제	-1992
▁제품	-1993
베르	-1994
배우	-1995
ut	-1996
TV	-1997
▁유래	-1998
▁것에	-1999
▁그런	-2000
▁찬	-2001
▁자치	-2002
나이	-2003
▁기여	-2004
▁쌍	-2005
.4	-2006
-2	-2007
인데	-2008
▁아프리카	-2009
관이	-2010
▁음반이다	-2011
▁발달	-2012
로의	-2013
..	-2014
▁1991	-2015
▁선수로	-2016
▁밤	-2017
지역	-2018
13	-2019
▁가문	-2020
▁하지	-2021
소의	-2022
시는	-2023
▁중에	-2024
▁쓴	-2025
▁이듬	-2026
▁유전	-2027
▁남자	-2028
단에	-2029
▁중요	-2030
▁때까지	-2031
▁그림	-2032
▁아직	-2033
▁비해	-2034
▁지진	-2035
▁현재는	-2036
▁접근	-2037
▁하계	-2038
라스	-2039
▁런던	-2040
ap	-2041
▁소프트	-2042
▁못했다	-2043
▁아마	-2044
▁친구	-2045
▁물질	-2046
들로	-2047
▁헬	-2048
▁핀	-2049
러스	-2050
계에	-2051
▁이곳	-2052
▁널리	-2053
▁1993	-2054
▁영토	-2055
형을	-2056
시코	-2057
직을	-2058
▁면적은	-2059
▁회사	-2060
▁마음	-2061
▁선수이다	-2062
▁하이	-2063
▁비행	-2064
▁사무	-2065
▁언론	-2066
▁1960	-2067
트가	-2068
▁이듬해	-2069
▁마찬	-2070
14	-2071
▁부여	-2072
▁우승을	-2073
▁있도록	-2074
▁알렉	-2075
▁단체	-2076
▁파괴	-2077
▁소재	-2078
▁움직	-2079
치고	-2080
로를	-2081
아의	-2082
라인	-2083
▁요청	-2084
)'	-2085
정의	-2086
▁사진	-2087
사카	-2088
어서	-2089
교회	-2090
소는	-2091
으므로	-2092
▁차례	-2093
",	-2094
▁괴	-2095
li	-2096
▁오래	-2097
▁수용	-2098
르고	-2099
▁주연으로	-2100
르의	-2101
▁나온	-2102
▁세워	-2103
▁육군	-2104
▁씨	-2105
▁멸	-2106
▁외국	-2107
17	-2108
었던	-2109
▁자주	-2110
감을	-2111
▁사람이	-2112
산을	-2113
.6	-2114
▁기록했다	-2115
▁특정	-2116
선에	-2117
가지로	-2118
규모	-2119
▁오스트리아	-2120
들도	-2121
NA	-2122
법을	-2123
▁in	-2124
▁불리	-2125
▁스포츠	-2126
》()	-2127
▁60	-2128
▁록	-2129
▁고등학교	-2130
.7	-2131
-0	-2132
▁이로	-2133
▁서울특별시	-2134
톨릭	-2135
▁위에	-2136
25	-2137
과에	-2138
일의	-2139
▁사람들이	-2140
두고	-2141
주시	-2142
식이	-2143
영화	-2144
▁프랑스의	-2145
▁참여하였다	-2146
▁『	-2147
민주주의	-2148
▁의하여	-2149
▁멀	-2150
▁스튜	-2151
점이	-2152
▁배치	-2153
▁펼	-2154
지에서	-2155
▁정도로	-2156
하의	-2157
가를	-2158
시즌	-2159
▁근처	-2160
▁스웨	-2161
▁경쟁	-2162
▁독일의	-2163
위가	-2164
경을	-2165
▁비롯한	-2166
릭터	-2167
▁바탕	-2168
▁촉	-2169
▁주인	-2170
▁쉽	-2171
▁지상	-2172
▁맨	-2173
드가	-2174
▁짧	-2175
▁지난	-2176
▁존재한다	-2177
▁지역에서	-2178
og	-2179
▁않아	-2180
▁깨	-2181
▁선수권	-2182
위는	-2183
▁공항	-2184
▁브라질	-2185
드에	-2186
▁식민	-2187
▁개혁	-2188
▁오른	-2189
▁1988	-2190
▁/	-2191
▁사라	-2192
▁품	-2193
인과	-2194
업을	-2195
▁복귀	-2196
정은	-2197
물의	-2198
▁남부	-2199
로나	-2200
▁폐지	-2201
불어	-2202
▁추진	-2203
▁정식	-2204
▁과정에서	-2205
▁전해	-2206
▁디자인	-2207
▁등과	-2208
▁해석	-2209
▁연기	-2210
주를	-2211
▁패배	-2212
받았다	-2213
▁작용	-2214
위의	-2215
▁스스로	-2216
▁밝혀	-2217
버스	-2218
▁1989	-2219
ab	-2220
▁서식	-2221
▁생성	-2222
▁해결	-2223
아가	-2224
▁더불어	-2225
▁강력	-2226
▁몬	-2227
구는	-2228
▁주의	-2229
.8	-2230
많은	-2231
장과	-2232
자리	-2233
하라	-2234
거리	-2235
%)	-2236
▁공립	-2237
▁이들	-2238
▁유명한	-2239
▁갖고	-2240
▁스트	-2241
당은	-2242
부로	-2243
▁만나	-2244
▁스웨덴	-2245
▁빛	-2246
▁가르	-2247
24	-2248
▁왕국	-2249
▁자동차	-2250
EFA	-2251
▁아시	-2252
▁습	-2253
디어	-2254
▁단순	-2255
웨어	-2256
▁그대로	-2257
▁비디오	-2258
▁캐릭터	-2259
▁KBS	-2260
▁잇	-2261
▁분포	-2262
▁자리	-2263
▁것이었다	-2264
소년	-2265
ht	-2266
▁바뀌	-2267
▁인터넷	-2268
동을	-2269
이기	-2270
크의	-2271
우는	-2272
▁다카	-2273
▁가져	-2274
▁도착	-2275
▁제국의	-2276
력은	-2277
▁기초	-2278
도와	-2279
선이	-2280
관으로	-2281
지게	-2282
▁사용된다	-2283
신을	-2284
멕시코	-2285
▁사용한다	-2286
▁외교	-2287
▁거부	-2288
▁영어	-2289
되었는데	-2290
회에서	-2291
▁그녀의	-2292
식은	-2293
.9	-2294
졌고	-2295
▁주도	-2296
간다	-2297
레일리아	-2298
▁법률	-2299
되기도	-2300
▁상호	-2301
오는	-2302
▁구성되어	-2303
▁교수	-2304
▁중간	-2305
ard	-2306
▁경우가	-2307
▁꽃	-2308
▁필리	-2309
행을	-2310
▁칠	-2311
구가	-2312
▁프레	-2313
웨이	-2314
▁일어나	-2315
없이	-2316
▁In	-2317
▁알고	-2318
▁이야기	-2319
▁and	-2320
oun	-2321
▁위험	-2322
▁먼저	-2323
▁불리는	-2324
▁이외	-2325
▁않다	-2326
▁제시	-2327
트에서	-2328
▁나머지	-2329
▁부정	-2330
▁UEFA	-2331
▁수많은	-2332
▁초대	-2333
▁스위스	-2334
▁아카	-2335
▁있었고	-2336
낸다	-2337
▁187	-2338
형의	-2339
ie	-2340
회사	-2341
▁캠	-2342
▁비슷한	-2343
▁슈퍼	-2344
▁가능하다	-2345
▁스테	-2346
▁70	-2347
▁마찬가지로	-2348
군과	-2349
하이	-2350
▁관측	-2351
▁불교	-2352
▁겪	-2353
하기로	-2354
▁술	-2355
ess	-2356
▁앙	-2357
▁이주	-2358
▁들어가	-2359
▁황제	-2360
▁초등학교	-2361
기술	-2362
▁윌리	-2363
▁많다	-2364
▁통치	-2365
화국의	-2366
▁가톨릭	-2367
▁시행	-2368
량이	-2369
지션	-2370
▁보다	-2371
▁투표	-2372
▁훈련	-2373
▁여름	-2374
철도	-2375
▁야마	-2376
▁팀의	-2377
▁다르	-2378
▁그린	-2379
▁동맹	-2380
▁뇌	-2381
나가	-2382
디아	-2383
자에	-2384
주로	-2385
ine	-2386
▁해안	-2387
오카	-2388
▁노르	-2389
화된	-2390
했다는	-2391
▁대사	-2392
정보	-2393
미터	-2394
▁묘사	-2395
▁의원	-2396
▁중단	-2397
한다고	-2398
▁목적으로	-2399
자이다	-2400
▁반란	-2401
11	-2402
▁지역을	-2403
트워	-2404
지털	-2405
▁이사	-2406
▁통일	-2407
48	-2408
▁여기서	-2409
▁The	-2410
티아	-2411
▁삶	-2412
▁표시	-2413
아시아	-2414
▁라디오	-2415
▁만에	-2416
▁바르	-2417
ne	-2418
만의	-2419
고를	-2420
▁것과	-2421
▁186	-2422
▁상대로	-2423
▁살아	-2424
▁결성	-2425
▁집합	-2426
▁시기	-2427
▁1950	-2428
▁사용할	-2429
▁빅	-2430
▁감소	-2431
량을	-2432
촬영	-2433
수한	-2434
전의	-2435
▁놀	-2436
선은	-2437
부에서	-2438
▁벤	-2439
▁조각	-2440
▁북쪽	-2441
▁출생	-2442
▁흡	-2443
▁오브	-2444
90	-2445
▁체포	-2446
▁임시	-2447
년을	-2448
전이	-2449
▁남쪽	-2450
조는	-2451
▁다만	-2452
▁달성	-2453
▁아무	-2454
▁궤	-2455
▁히로	-2456
▁포르투	-2457
▁시도	-2458
▁있으나	-2459
▁오스트레일리아	-2460
식의	-2461
였으며	-2462
▁의하면	-2463
▁해당한다	-2464
▁상징	-2465
▁센터	-2466
▁대응	-2467
라우	-2468
.(	-2469
▁이스	-2470
▁1987	-2471
인들이	-2472
▁파견	-2473
▁천황	-2474
과학	-2475
았고	-2476
▁근거	-2477
하였는데	-2478
▁준비	-2479
▁가정	-2480
▁떨어진	-2481
▁경영	-2482
▁끝에	-2483
▁유니	-2484
▁캘	-2485
▁개통	-2486
▁때는	-2487
▁관련된	-2488
▁바꾸	-2489
▁발행	-2490
▁형태로	-2491
▁삼성	-2492
하다가	-2493
▁가능한	-2494
▁활용	-2495
ion	-2496
회가	-2497
▁아일랜드	-2498
▁보유	-2499
▁1986	-2500
종이다	-2501
▁광주	-2502
되었지만	-2503
▁촌	-2504
▁나무	-2505
▁지냈다	-2506
시를	-2507
▁십	-2508
▁억	-2509
▁정부는	-2510
센터	-2511
▁간의	-2512
▁등록	-2513
▁유대	-2514
였고	-2515
▁w	-2516
인트	-2517
▁베르	-2518
35	-2519
크라이나	-2520
▁벽	-2521
▁공작	-2522
전은	-2523
어나	-2524
▁서비스	-2525
회에	-2526
함을	-2527
▁붕	-2528
▁번역	-2529
▁몇몇	-2530
▁방어	-2531
▁있기	-2532
ang	-2533
속도로	-2534
▁1945	-2535
어졌다	-2536
▁80	-2537
▁처리	-2538
▁멕시코	-2539
▁곤	-2540
▁유로	-2541
▁강원	-2542
▁일을	-2543
▁엘리	-2544
▁체결	-2545
ity	-2546
▁재판	-2547
▁1984	-2548
▁좋아	-2549
▁숨	-2550
▁윌리엄	-2551
te	-2552
▁유일한	-2553
▁종료	-2554
▁둔	-2555
▁디지털	-2556
"(	-2557
▁낳	-2558
▁시험	-2559
▁회의	-2560
▁녹음	-2561
▁다루	-2562
▁이루어진	-2563
▁따른	-2564
가로	-2565
평양	-2566
화의	-2567
▁합류	-2568
▁성립	-2569
▁2,	-2570
▁귀족	-2571
인지	-2572
▁안정	-2573
점으로	-2574
▁바다	-2575
▁타이틀	-2576
▁홍콩	-2577
▁위해서	-2578
▁반면	-2579
▁멜	-2580
니는	-2581
ak	-2582
▁논란	-2583
프는	-2584
▁지하철	-2585
치로	-2586
▁이렇게	-2587
▁일제	-2588
대와	-2589
▁직후	-2590
면을	-2591
▁이름이	-2592
▁연극	-2593
나의	-2594
성으로	-2595
부와	-2596
▁Ch	-2597
도우	-2598
▁떠나	-2599
▁규정	-2600
▁금지	-2601
▁르	-2602
▁대표적인	-2603
▁후쿠	-2604
▁대해서	-2605
▁촬영	-2606
▁문서	-2607
▁이슬	-2608
▁싶	-2609
시가	-2610
사에서	-2611
▁정착	-2612
▁앞두고	-2613
력의	-2614
▁로스	-2615
▁혐	-2616
▁낮은	-2617
▁제작에	-2618
▁살해	-2619
▁파이	-2620
▁시작하였다	-2621
리포	-2622
▁중에서	-2623
트에	-2624
▁카를	-2625
메달을	-2626
▁국회의원	-2627
▁완성	-2628
▁나타나	-2629
▁조선민주주의	-2630
음이의	-2631
▁에이	-2632
▁지적	-2633
▁하루	-2634
▁동생	-2635
▁얼마	-2636
▁보존	-2637
▁제기	-2638
▁여객	-2639
▁주인공	-2640
버트	-2641
▁전달	-2642
▁있지	-2643
물이	-2644
▁1985	-2645
▁뮤직	-2646
▁제주	-2647
러운	-2648
▁부른다	-2649
▁여전히	-2650
▁값	-2651
▁스튜디오	-2652
▁못한	-2653
전한	-2654
▁꾸	-2655
▁전환	-2656
est	-2657
▁즉위	-2658
▁계열	-2659
피아	-2660
ph	-2661
▁미사	-2662
으면서	-2663
국이	-2664
량은	-2665
▁관계를	-2666
▁우크라이나	-2667
▁아내	-2668
▁내각	-2669
▁중국의	-2670
▁만들었다	-2671
▁문학	-2672
▁승강장	-2673
▁제거	-2674
역으로	-2675
세포	-2676
조를	-2677
트라	-2678
▁당선	-2679
▁국왕	-2680
해졌다	-2681
▁보여주	-2682
(200	-2683
치의	-2684
▁적이	-2685
▁정치적	-2686
▁강한	-2687
롭게	-2688
체로	-2689
▁인근	-2690
▁동쪽	-2691
▁혁명	-2692
▁수비	-2693
임스	-2694
▁보수	-2695
사이	-2696
사업	-2697
▁제목	-2698
▁해외	-2699
▁취임	-2700
국은	-2701
ob	-2702
▁이집	-2703
ist	-2704
로가	-2705
▁공급	-2706
▁을	-2707
▁사이에서	-2708
안을	-2709
▁필요한	-2710
와는	-2711
ers	-2712
계가	-2713
▁폰	-2714
▁안에	-2715
가이다	-2716
▁소개	-2717
▁대해서는	-2718
▁사용하여	-2719
인들은	-2720
▁썼	-2721
연합	-2722
▁그렇	-2723
▁일어난	-2724
동음이의	-2725
월까지	-2726
▁젊	-2727
당이	-2728
▁경기를	-2729
▁종합	-2730
소에	-2731
▁벗	-2732
▁35	-2733
▁위치해	-2734
자들의	-2735
시키고	-2736
▁n	-2737
▁계승	-2738
▁인식	-2739
▁주목	-2740
▁대륙	-2741
▁사람은	-2742
)"	-2743
▁문제를	-2744
요일	-2745
_3	-2746
▁남성	-2747
▁예선	-2748
헝가	-2749
크는	-2750
26	-2751
▁a	-2752
▁한국의	-2753
▁의견	-2754
▁충돌	-2755
▁1982	-2756
86	-2757
단으로	-2758
▁굴	-2759
▁관광	-2760
▁쌓	-2761
▁부모	-2762
▁표기	-2763
하에	-2764
▁나중에	-2765
▁스코	-2766
▁곳에	-2767
과를	-2768
▁포르투갈	-2769
준다	-2770
니스	-2771
려고	-2772
시킨	-2773
력으로	-2774
▁종류	-2775
학생	-2776
작용	-2777
▁가까운	-2778
▁네트워	-2779
27	-2780
▁밑	-2781
조선	-2782
▁발사	-2783
워드	-2784
▁펜	-2785
관의	-2786
▁것도	-2787
▁왼	-2788
기업	-2789
▁류	-2790
all	-2791
▁승격	-2792
▁이래	-2793
프가	-2794
년대에	-2795
▁읽	-2796
▁본래	-2797
▁꼬	-2798
▁최소	-2799
▁못하고	-2800
메이	-2801
▁신문	-2802
▁프로듀	-2803
주교	-2804
▁너무	-2805
▁1983	-2806
▁근무	-2807
▁알렉산	-2808
▁전략	-2809
▁즐	-2810
▁물론	-2811
되자	-2812
▁집중	-2813
▁옮겨	-2814
▁오후	-2815
45	-2816
▁문제가	-2817
▁사망하였다	-2818
▁에피	-2819
세에	-2820
년과	-2821
적이고	-2822
▁아니다	-2823
를린	-2824
▁기후	-2825
▁생물	-2826
▁중의	-2827
수이다	-2828
▁상업	-2829
▁미래	-2830
로스	-2831
ell	-2832
▁신경	-2833
▁허용	-2834
리히	-2835
▁이슬람	-2836
▁포지션	-2837
89	-2838
▁아우	-2839
권의	-2840
▁올랐다	-2841
▁평화	-2842
백질	-2843
▁오르	-2844
▁실제로	-2845
▁나누	-2846
리어	-2847
시로	-2848
적으로는	-2849
▁둘러	-2850
▁서쪽	-2851
▁조성	-2852
▁인한	-2853
나라의	-2854
▁범죄	-2855
즈의	-2856
▁연장	-2857
▁대회에서	-2858
▁종종	-2859
▁종목	-2860
▁튀	-2861
▁북부	-2862
▁빨	-2863
▁듣	-2864
로운	-2865
▁가는	-2866
▁스토	-2867
▁사용되는	-2868
▁죄	-2869
▁지명	-2870
라노	-2871
▁명예	-2872
▁강조	-2873
▁몽골	-2874
▁주었다	-2875
▁인민	-2876
▁케이	-2877
리스트	-2878
계는	-2879
▁피아	-2880
점에서	-2881
했기	-2882
▁감염	-2883
▁관찰	-2884
로로	-2885
분을	-2886
▁베네	-2887
ub	-2888
내고	-2889
▁발표했다	-2890
▁수가	-2891
▁이번	-2892
art	-2893
▁납	-2894
▁간주	-2895
▁아키	-2896
qu	-2897
▁미술	-2898
족의	-2899
▁보이	-2900
그룹	-2901
▁장애	-2902
산의	-2903
▁제도	-2904
▁합병	-2905
만에	-2906
▁뒤에	-2907
▁말을	-2908
▁가입	-2909
상에서	-2910
량의	-2911
분에	-2912
▁최고의	-2913
차를	-2914
▁왔다	-2915
▁이용하여	-2916
승을	-2917
▁경우에는	-2918
은행	-2919
▁배경	-2920
▁정리	-2921
▁전반	-2922
▁델	-2923
▁척	-2924
▁구단	-2925
▁무역	-2926
▁출연하였고	-2927
▁경상북도	-2928
가가	-2929
▁바탕으로	-2930
▁컬	-2931
▁일반적인	-2932
▁건너	-2933
▁경상남도	-2934
세이	-2935
▁사실을	-2936
▁넘어	-2937
▁전시	-2938
▁던	-2939
CA	-2940
▁빼	-2941
-3	-2942
tic	-2943
▁이후에	-2944
당을	-2945
▁기록을	-2946
▁만화	-2947
론을	-2948
라엘	-2949
▁해군	-2950
체에	-2951
28	-2952
▁이루어져	-2953
▁오사카	-2954
our	-2955
▁비밀	-2956
석을	-2957
▁위의	-2958
▁작성	-2959
▁마이크로	-2960
▁동료	-2961
▁de	-2962
▁게이	-2963
▁1979	-2964
▁만들어진	-2965
▁사회적	-2966
▁중화인민공화국	-2967
▁저항	-2968
▁각종	-2969
역에서	-2970
관에	-2971
',	-2972
▁셀	-2973
▁남북	-2974
▁하기	-2975
▁뒷	-2976
테인	-2977
▁II	-2978
해를	-2979
▁헨	-2980
지도	-2981
▁기존의	-2982
▁의사	-2983
졌으며	-2984
▁건강	-2985
▁내부	-2986
▁옆	-2987
▁기능을	-2988
드와	-2989
계에서	-2990
▁측정	-2991
▁위치하고	-2992
▁편집	-2993
▁위협	-2994
▁통하여	-2995
▁계산	-2996
조가	-2997
신의	-2998
다이	-2999
세기에	-3000
상과	-3001
▁출신의	-3002
리포니아	-3003
▁1981	-3004
▁그것은	-3005
▁불린다	-3006
▁?	-3007
▁정부의	-3008
▁혜	-3009
고로	-3010
▁뿐만	-3011
소로	-3012
문화재	-3013
▁외에도	-3014
사키	-3015
서로	-3016
se	-3017
▁g	-3018
▁무렵	-3019
레이션	-3020
▁만드는	-3021
▁받아들	-3022
▁그곳	-3023
▁부근	-3024
▁사람들은	-3025
▁마련	-3026
br	-3027
▁윈도우	-3028
용으로	-3029
▁그해	-3030
▁실행	-3031
▁채널	-3032
▁시기에	-3033
▁1972	-3034
▁제외한	-3035
파의	-3036
티브	-3037
▁충분	-3038
종이	-3039
보다는	-3040
▁사회주의	-3041
▁샌	-3042
▁농업	-3043
▁시대의	-3044
자에게	-3045
64	-3046
권이	-3047
▁90	-3048
29	-3049
▁항상	-3050
라고도	-3051
▁맹	-3052
▁구조를	-3053
▁갖추	-3054
▁오스	-3055
▁채택	-3056
▁성격	-3057
▁민간	-3058
▁증거	-3059
▁국방	-3060
▁사람을	-3061
▁년	-3062
미디	-3063
ong	-3064
▁계약을	-3065
▁MBC	-3066
비가	-3067
▁시작되었다	-3068
▁고양	-3069
일은	-3070
▁확대	-3071
▁끼	-3072
장이다	-3073
문학	-3074
▁유형	-3075
산으로	-3076
▁성우	-3077
역은	-3078
▁블랙	-3079
생활	-3080
▁적극	-3081
원과	-3082
▁불러	-3083
▁주는	-3084
85	-3085
▁노력	-3086
▁재직	-3087
개를	-3088
▁요리	-3089
전쟁	-3090
▁입학	-3091
사인	-3092
주가	-3093
uc	-3094
▁확보	-3095
모리	-3096
▁주장했다	-3097
트와	-3098
▁사령	-3099
문에	-3100
기고	-3101
역에	-3102
관리	-3103
▁뒤를	-3104
▁만약	-3105
▁남동	-3106
▁그려	-3107
▁점차	-3108
왕의	-3109
▁붕괴	-3110
점에	-3111
▁출발	-3112
▁되었으며	-3113
▁1973	-3114
물로	-3115
▁침공	-3116
▁이스라엘	-3117
화에	-3118
▁그래서	-3119
▁생활을	-3120
▁객	-3121
▁유리	-3122
47	-3123
▁젊은	-3124
▁일이	-3125
▁쉽게	-3126
▁500	-3127
호가	-3128
▁나카	-3129
▁집단	-3130
사우	-3131
▁에드	-3132
▁라이브	-3133
▁제정	-3134
▁균	-3135
니어	-3136
▁전투에서	-3137
끄는	-3138
▁유엔	-3139
실을	-3140
▁세르	-3141
av	-3142
▁32	-3143
▁남편	-3144
라비아	-3145
로도	-3146
▁있었지만	-3147
▁관심을	-3148
▁찰	-3149
▁판단	-3150
▁사례	-3151
▁방식으로	-3152
공항	-3153
ran	-3154
▁흰	-3155
▁강력한	-3156
▁매년	-3157
하려는	-3158
▁끊	-3159
▁바람	-3160
이라고도	-3161
해의	-3162
도시	-3163
미널	-3164
▁교체	-3165
▁데이비	-3166
▁옹	-3167
▁다섯	-3168
▁신설	-3169
▁동일	-3170
▁동부	-3171
았으며	-3172
까지의	-3173
라운드	-3174
▁이전에	-3175
▁엑	-3176
▁보도	-3177
▁단백질	-3178
▁친일	-3179
습니다	-3180
데미	-3181
ST	-3182
리기	-3183
▁장기	-3184
▁헝가	-3185
▁45	-3186
타이	-3187
▁승리를	-3188
ik	-3189
▁내에서	-3190
▁수입	-3191
▁베를린	-3192
▁1974	-3193
▁캘리포니아	-3194
▁잭	-3195
교의	-3196
▁&	-3197
▁안전	-3198
▁설치되었던	-3199
▁여행	-3200
도르	-3201
산업	-3202
▁인디	-3203
이던	-3204
▁인수	-3205
▁책임	-3206
경제	-3207
키아	-3208
대에서	-3209
▁차지했다	-3210
▁화학	-3211
비는	-3212
▁겨울	-3213
▁정보를	-3214
75	-3215
▁동계	-3216
65	-3217
學校	-3218
밖에	-3219
92	-3220
▁모스크	-3221
▁유일	-3222
▁마사	-3223
▁도시로	-3224
테인먼	-3225
▁자리를	-3226
▁보면	-3227
▁쓰인다	-3228
개발	-3229
▁대규모	-3230
98	-3231
▁에피소	-3232
▁공공	-3233
▁서부	-3234
▁전라남도	-3235
하다고	-3236
▁아나	-3237
▁정상	-3238
▁이란	-3239
▁v	-3240
▁탑재	-3241
▁핀란드	-3242
...	-3243
▁자본	-3244
▁1976	-3245
▁1978	-3246
포르	-3247
▁수립	-3248
력과	-3249
▁공격을	-3250
▁원자	-3251
네시아	-3252
이었고	-3253
▁자신을	-3254
▁연맹	-3255
▁e	-3256
▁회복	-3257
났으며	-3258
의로	-3259
명한	-3260
▁필리핀	-3261
▁등에서	-3262
▁제임스	-3263
터테인먼	-3264
력에	-3265
FC	-3266
계로	-3267
▁구축	-3268
시오	-3269
▁태어난	-3270
▁경향	-3271
▁Z	-3272
바르	-3273
▁에스	-3274
▁1975	-3275
민족	-3276
사령	-3277
▁등은	-3278
▁플랫	-3279
▁사용한	-3280
▁비율	-3281
kg	-3282
화는	-3283
로서의	-3284
▁라틴	-3285
ge	-3286
법원	-3287
▁냉	-3288
▁조정	-3289
선에서	-3290
▁덴마	-3291
▁1968	-3292
▁쪽	-3293
▁어떻	-3294
▁콩	-3295
르타	-3296
▁신라	-3297
보드	-3298
▁경우도	-3299
▁구성된	-3300
▁불과	-3301
동차	-3302
37	-3303
▁루이	-3304
▁수정	-3305
▁얼굴	-3306
▁블루	-3307
어도	-3308
▁185	-3309
▁쇠	-3310
▁아랍	-3311
▁회원	-3312
36	-3313
음악	-3314
▁마리아	-3315
일러	-3316
▁떨어져	-3317
▁측면	-3318
▁파리	-3319
▁1971	-3320
ip	-3321
리트	-3322
95	-3323
국을	-3324
유럽	-3325
▁개선	-3326
for	-3327
▁변호	-3328
▁않을	-3329
전으로	-3330
▁밖에	-3331
▁받는	-3332
▁과정을	-3333
▁해체	-3334
▁높이	-3335
▁180	-3336
프의	-3337
▁시장	-3338
스케	-3339
▁텍	-3340
적이다	-3341
▁사용되었다	-3342
▁왔	-3343
▁전개	-3344
▁전사	-3345
당한	-3346
리학	-3347
▁지역은	-3348
▁이끄는	-3349
문이	-3350
래프트	-3351
)》	-3352
자들을	-3353
▁섭	-3354
설을	-3355
에게는	-3356
▁복잡	-3357
▁알아	-3358
▁영화배우	-3359
▁1969	-3360
▁당시의	-3361
진을	-3362
ly	-3363
▁수학	-3364
신이	-3365
되었을	-3366
▁네트워크	-3367
틀랜드	-3368
87	-3369
당에	-3370
▁한다고	-3371
▁비용	-3372
단체	-3373
구로	-3374
'(	-3375
학년	-3376
었는데	-3377
▁봄	-3378
▁가격	-3379
▁어떻게	-3380
▁인간의	-3381
▁카메	-3382
▁포지션은	-3383
▁공유	-3384
질을	-3385
▁도움을	-3386
46	-3387
▁태풍	-3388
티나	-3389
▁보이는	-3390
ice	-3391
▁흘	-3392
셔널	-3393
▁북서	-3394
▁길이	-3395
ry	-3396
%,	-3397
▁나폴	-3398
▁링	-3399
▁대형	-3400
▁하자	-3401
드에서	-3402
▁태평양	-3403
▁훨	-3404
▁다음은	-3405
▁한다는	-3406
▁대상	-3407
▁유도	-3408
대전	-3409
▁특수	-3410
▁시대에	-3411
▁대상으로	-3412
▁사후	-3413
▁기획	-3414
▁중학교	-3415
▁설정	-3416
▁훨씬	-3417
▁숲	-3418
▁기억	-3419
약을	-3420
소에서	-3421
세대	-3422
▁임명되었다	-3423
종은	-3424
▁1920	-3425
▁개정	-3426
▁기계	-3427
인에	-3428
▁가로	-3429
▁고전	-3430
까지는	-3431
▁비교적	-3432
려는	-3433
▁힘을	-3434
▁협력	-3435
나미	-3436
슈타	-3437
▁쉬	-3438
▁기반으로	-3439
한국	-3440
▁잠시	-3441
▁중반	-3442
어와	-3443
▁검은	-3444
▁개편	-3445
▁원칙	-3446
▁은행	-3447
▁코미디	-3448
제에	-3449
하고자	-3450
▁인하여	-3451
▁재정	-3452
싱턴	-3453
오프	-3454
류를	-3455
받아	-3456
시와	-3457
▁시청	-3458
▁소프트웨어	-3459
▁1930	-3460
▁득점	-3461
▁폭발	-3462
▁이승	-3463
▁만족	-3464
▁에너지	-3465
▁울산	-3466
붉은	-3467
식으로	-3468
▁이것이	-3469
▁식물	-3470
아이	-3471
▁초반	-3472
▁사람의	-3473
하나	-3474
▁촌이다	-3475
라가	-3476
▁1963	-3477
▁짧은	-3478
▁셰	-3479
▁고구	-3480
데스	-3481
▁세운	-3482
다른	-3483
▁고용	-3484
(201	-3485
▁말이다	-3486
시대의	-3487
▁해방	-3488
▁저장	-3489
베르크	-3490
▁좀	-3491
인들의	-3492
▁형태의	-3493
면의	-3494
▁개봉한	-3495
▁털	-3496
후의	-3497
▁자체	-3498
▁춘	-3499
▁수출	-3500
▁마드리	-3501
▁가리키는	-3502
43	-3503
▁대립	-3504
었지만	-3505
도에서	-3506
▁동일한	-3507
▁하게	-3508
▁하면서	-3509
▁1977	-3510
▁아름	-3511
▁플랫폼	-3512
▁마쓰	-3513
▁꿈	-3514
▁도서	-3515
▁토론	-3516
분의	-3517
▁갖춘	-3518
▁없어	-3519
▁편입	-3520
다운	-3521
▁인기를	-3522
▁짓	-3523
▁전차	-3524
▁참석	-3525
▁1940	-3526
▁애플	-3527
품을	-3528
▁파일	-3529
슨은	-3530
▁핵심	-3531
▁h	-3532
▁플로	-3533
번의	-3534
리노	-3535
무원	-3536
,5	-3537
▁통신	-3538
▁가능성이	-3539
▁팀은	-3540
▁역사상	-3541
역의	-3542
▁메이저	-3543
SA	-3544
▁박물	-3545
▁죽음	-3546
▁1948	-3547
▁있었으며	-3548
▁북동	-3549
▁열대	-3550
▁증명	-3551
▁설치되어	-3552
ant	-3553
▁트리	-3554
▁발생한	-3555
자치	-3556
▁버스	-3557
▁브랜드	-3558
▁나오는	-3559
ore	-3560
▁불가능	-3561
▁통한	-3562
▁뛰어난	-3563
▁의해서	-3564
▁죽은	-3565
우리	-3566
구와	-3567
▁33	-3568
세계	-3569
키스탄	-3570
▁아카데미	-3571
라크	-3572
▁장착	-3573
▁둥	-3574
▁잎	-3575
▁후손	-3576
료를	-3577
▁인사	-3578
ber	-3579
▁1964	-3580
브리	-3581
시킬	-3582
▁아르헨	-3583
▁경기에	-3584
마이	-3585
▁세이	-3586
▁사실상	-3587
▁시내	-3588
▁강원도	-3589
형이	-3590
▁클래	-3591
▁심각	-3592
▁본선	-3593
▁예상	-3594
▁잘못	-3595
ud	-3596
49	-3597
▁300	-3598
▁귀국	-3599
지기	-3600
▁구체	-3601
하려고	-3602
대회	-3603
었으나	-3604
▁카이	-3605
▁속에서	-3606
▁외에	-3607
▁중화민	-3608
▁속에	-3609
▁했지만	-3610
▁묻	-3611
▁박사	-3612
▁모스크바	-3613
마스	-3614
▁우선	-3615
▁고등	-3616
▁나뉘	-3617
▁홈런	-3618
로드	-3619
산은	-3620
▁본격	-3621
같은	-3622
▁글로	-3623
수와	-3624
점은	-3625
▁듀	-3626
년이	-3627
동의	-3628
▁충청남도	-3629
▁흔히	-3630
▁추정된다	-3631
▁일본에서	-3632
▁확정	-3633
▁평양	-3634
▁비난	-3635
▁공부	-3636
▁행사	-3637
▁고정	-3638
▁현실	-3639
▁수여	-3640
-19	-3641
▁트랙	-3642
▁나서	-3643
▁원작	-3644
▁편성	-3645
▁등장하는	-3646
▁일종이다	-3647
▁덮	-3648
룬다	-3649
▁반복	-3650
국에	-3651
▁시각	-3652
▁태어나	-3653
▁캄	-3654
▁조금	-3655
받은	-3656
▁러시아의	-3657
협회	-3658
형은	-3659
▁펠	-3660
88	-3661
▁내용을	-3662
▁전혀	-3663
▁부인	-3664
▁숫	-3665
up	-3666
▁공포	-3667
OS	-3668
경에	-3669
▁아시안	-3670
▁기사	-3671
▁위치한다	-3672
▁투자	-3673
▁권한	-3674
▁단일	-3675
서에	-3676
▁얻었다	-3677
▁사는	-3678
▁세계에서	-3679
▁했고	-3680
▁스피	-3681
▁설립된	-3682
겠다고	-3683
ni	-3684
ue	-3685
▁띠	-3686
▁베이징	-3687
▁창설	-3688
▁도달	-3689
▁형제	-3690
▁롤	-3691
주에서	-3692
▁본관은	-3693
▁CD	-3694
▁1967	-3695
에르	-3696
았던	-3697
료로	-3698
자이	-3699
▁오히	-3700
바라	-3701
일보	-3702
소프트	-3703
▁오랜	-3704
▁뜻이	-3705
아버	-3706
▁방출	-3707
▁암살	-3708
지면서	-3709
ss	-3710
▁1962	-3711
▁사망했다	-3712
▁때에는	-3713
▁의료	-3714
이었으나	-3715
eg	-3716
정책	-3717
▁정복	-3718
▁업무	-3719
쿠라	-3720
어져	-3721
▁선의	-3722
BO	-3723
▁도움	-3724
▁물러	-3725
▁답	-3726
▁내에	-3727
권에	-3728
▁스파	-3729
리우	-3730
end	-3731
▁정부가	-3732
▁1946	-3733
▁교토	-3734
▁근대	-3735
96	-3736
차례	-3737
ain	-3738
▁뿌	-3739
함에	-3740
▁고향	-3741
▁유명하다	-3742
▁포함되어	-3743
▁역대	-3744
▁시의	-3745
▁나이	-3746
종으로	-3747
▁되면서	-3748
▁조선민주주의인민공화국	-3749
어들	-3750
하마	-3751
▁36	-3752
▁앞서	-3753
법에	-3754
▁아주	-3755
nd	-3756
테르	-3757
▁타고	-3758
ty	-3759
▁to	-3760
94	-3761
수에	-3762
▁적은	-3763
▁있었으나	-3764
Ch	-3765
니의	-3766
▁시간이	-3767
▁오리	-3768
ight	-3769
76	-3770
▁찍	-3771
▁융	-3772
▁금융	-3773
▁탄생	-3774
법의	-3775
▁북아	-3776
▁있었는데	-3777
음에도	-3778
▁LG	-3779
군으로	-3780
무라	-3781
▁프로그램이다	-3782
▁통제	-3783
▁시즌을	-3784
▁발견된다	-3785
▁짐	-3786
▁넓은	-3787
▁국가의	-3788
▁보급	-3789
경의	-3790
▁결과를	-3791
▁노예	-3792
▁래	-3793
일로	-3794
▁문자	-3795
▁무기	-3796
ast	-3797
▁선고	-3798
주와	-3799
▁구별	-3800
▁출마	-3801
▁하는데	-3802
▁인터뷰	-3803
▁남서	-3804
▁린	-3805
▁욕	-3806
▁그에	-3807
▁옷	-3808
83	-3809
역이	-3810
자기	-3811
▁되지	-3812
▁시티	-3813
93	-3814
가에	-3815
▁1965	-3816
▁이탈리아의	-3817
▁관심	-3818
▁정도의	-3819
스리그	-3820
▁원정	-3821
▁머리	-3822
권은	-3823
율을	-3824
▁세웠다	-3825
스럽	-3826
▁오래된	-3827
▁지원을	-3828
▁l	-3829
▁제출	-3830
기압	-3831
▁보였다	-3832
▁1949	-3833
경찰	-3834
예술	-3835
▁음력	-3836
해진	-3837
▁요새	-3838
▁솔로	-3839
▁족	-3840
하다는	-3841
로마	-3842
▁1966	-3843
▁추측	-3844
97	-3845
교통	-3846
▁계급	-3847
신은	-3848
ich	-3849
▁오픈	-3850
유의	-3851
년에서	-3852
▁갈등	-3853
시티	-3854
으로도	-3855
▁모리	-3856
▁이끌고	-3857
호의	-3858
▁판결	-3859
▁광고	-3860
▁로버트	-3861
경기에	-3862
▁때에	-3863
▁조합	-3864
가타	-3865
▁워싱턴	-3866
▁대표팀	-3867
ill	-3868
▁거절	-3869
41	-3870
▁없고	-3871
▁이민	-3872
▁거대한	-3873
나와	-3874
공업	-3875
▁목적	-3876
▁현재까지	-3877
법은	-3878
▁다니	-3879
▁이중	-3880
마트	-3881
▁맡고	-3882
여자	-3883
▁카운	-3884
▁투입	-3885
▁그에게	-3886
▁마침	-3887
▁주교	-3888
▁생존	-3889
▁합의	-3890
간에	-3891
버그	-3892
▁됐다	-3893
▁길이는	-3894
자들	-3895
▁저지	-3896
▁했으나	-3897
▁확실	-3898
▁오토	-3899
▁대항	-3900
▁머물	-3901
▁1961	-3902
▁이후에는	-3903
▁항복	-3904
▁나와	-3905
▁겐	-3906
당했다	-3907
▁150	-3908
▁계획을	-3909
▁엔터테인먼	-3910
▁작전	-3911
색을	-3912
▁전설	-3913
▁헤이	-3914
▁한때	-3915
중앙	-3916
▁오전	-3917
▁아파	-3918
▁점에서	-3919
▁무장	-3920
▁첨	-3921
리케	-3922
▁신앙	-3923
▁고구려	-3924
문의	-3925
리게	-3926
32	-3927
▁각본	-3928
▁번째로	-3929
▁시작한	-3930
플레이	-3931
42	-3932
차로	-3933
항공	-3934
▁어렵	-3935
물은	-3936
▁사용하고	-3937
우고	-3938
일이	-3939
프리	-3940
▁프란	-3941
▁약간	-3942
비치	-3943
▁만큼	-3944
▁오히려	-3945
▁명명	-3946
증을	-3947
▁붉은	-3948
▁창립	-3949
▁뜻한다	-3950
▁문화재	-3951
누스	-3952
▁온라인	-3953
▁그것을	-3954
▁살고	-3955
▁요한	-3956
시설	-3957
노동	-3958
▁반영	-3959
ate	-3960
▁율	-3961
▁라인	-3962
▁논쟁	-3963
▁전용	-3964
기원	-3965
▁끝나	-3966
▁요소	-3967
▁대비	-3968
스러운	-3969
▁터키	-3970
▁호텔	-3971
▁낭	-3972
이었으며	-3973
▁하였고	-3974
▁의회	-3975
▁비록	-3976
▁해당하는	-3977
▁전쟁이	-3978
▁이야기를	-3979
화로	-3980
▁힐	-3981
▁차이가	-3982
축구	-3983
▁마리	-3984
받고	-3985
▁지닌	-3986
▁듯	-3987
▁절대	-3988
로그	-3989
▁하나는	-3990
렸고	-3991
▁하드	-3992
▁슬로	-3993
▁속한다	-3994
▁아메리카	-3995
초등학교는	-3996
박쥐	-3997
서가	-3998
지며	-3999
▁뜻을	-4000
▁선거에서	-4001
▁멸망	-4002
▁활발	-4003
기에는	-4004
이와	-4005
▁스코틀랜드	-4006
▁=	-4007
명과	-4008
타를	-4009
▁투수	-4010
ok	-4011
지이다	-4012
▁인공	-4013
만큼	-4014
▁미드	-4015
비의	-4016
(15	-4017
국에서	-4018
▁것처럼	-4019
▁점을	-4020
더라도	-4021
▁동의	-4022
ov	-4023
▁의존	-4024
▁초등학교이다	-4025
▁처음에는	-4026
oh	-4027
▁상당히	-4028
▁보는	-4029
▁공식적으로	-4030
안에	-4031
리아의	-4032
if	-4033
▁벨기에	-4034
동이	-4035
▁금속	-4036
지원	-4037
▁아침	-4038
사건	-4039
▁마이클	-4040
▁삭	-4041
▁생겨	-4042
▁철학	-4043
▁하늘	-4044
▁스크	-4045
익을	-4046
▁장악	-4047
▁식민지	-4048
▁뉴스	-4049
보를	-4050
여서	-4051
▁득표	-4052
▁준우	-4053
의회	-4054
▁거리	-4055
미야	-4056
다면	-4057
▁피아노	-4058
ep	-4059
▁서양	-4060
국민	-4061
▁양성	-4062
생의	-4063
▁통해서	-4064
▁성인	-4065
추어	-4066
▁주식	-4067
▁킹	-4068
판을	-4069
현재	-4070
▁천문	-4071
▁보냈다	-4072
~)	-4073
언을	-4074
▁역임했다	-4075
▁원주	-4076
▁이른	-4077
▁약속	-4078
▁수원	-4079
▁이르는	-4080
조에	-4081
앤젤	-4082
▁했으며	-4083
▁함수	-4084
▁전쟁을	-4085
▁유사한	-4086
▁보컬	-4087
▁뽑	-4088
프레	-4089
▁팀이	-4090
술을	-4091
▁발표한	-4092
▁시간을	-4093
▁강제	-4094
▁백작	-4095
▁취득	-4096
▁출입	-4097
▁플라	-4098
수록	-4099
〉,	-4100
즈는	-4101
서의	-4102
▁넘는	-4103
번째로	-4104
ort	-4105
ER	-4106
▁빠르게	-4107
▁이제	-4108
▁보조	-4109
ae	-4110
▁위해서는	-4111
▁병사	-4112
▁취급	-4113
▁수상했다	-4114
▁일으켰	-4115
▁SBS	-4116
▁방법을	-4117
▁38	-4118
▁혼란	-4119
33	-4120
_2	-4121
마의	-4122
령을	-4123
▁이유는	-4124
제국	-4125
▁전후	-4126
▁작품을	-4127
▁국경	-4128
▁경계	-4129
▁청소년	-4130
▁트레이	-4131
▁산맥	-4132
▁1000	-4133
ian	-4134
▁간단	-4135
시킨다	-4136
▁관할한다	-4137
▁인기	-4138
▁주어	-4139
분이	-4140
▁팀을	-4141
에게서	-4142
▁철도역이다	-4143
산이	-4144
▁잇는	-4145
▁브리	-4146
ll	-4147
▁논의	-4148
▁숭	-4149
니아의	-4150
▁질병	-4151
ew	-4152
▁거래	-4153
▁부활	-4154
▁알게	-4155
지인	-4156
재를	-4157
▁개시	-4158
▁높아	-4159
분류	-4160
91	-4161
▁없다고	-4162
안의	-4163
세와	-4164
▁기자	-4165
▁후속	-4166
her	-4167
▁빠른	-4168
▁스티	-4169
뿐만	-4170
▁운용	-4171
▁장식	-4172
44	-4173
▁무엇	-4174
▁공산주의	-4175
▁프로젝트	-4176
▁공개된	-4177
화와	-4178
▁진입	-4179
▁37	-4180
▁받지	-4181
▁그러한	-4182
▁방향으로	-4183
▁후에는	-4184
ld	-4185
▁건조	-4186
▁서비스를	-4187
▁부임	-4188
격으로	-4189
▁400	-4190
▁대략	-4191
석이	-4192
저우	-4193
▁로스앤젤	-4194
네스	-4195
▁동남	-4196
▁되면	-4197
▁기록한	-4198
세로	-4199
▁규칙	-4200
▁은하	-4201
▁삼각	-4202
▁포기	-4203
▁흡수	-4204
치에	-4205
▁승인	-4206
개가	-4207
▁인도네시아	-4208
▁건립	-4209
▁소수	-4210
▁롯	-4211
에트	-4212
▁사건을	-4213
▁활동했다	-4214
평가	-4215
▁레드	-4216
정으로	-4217
▁역을	-4218
▁1958	-4219
▁말레이	-4220
▁않았고	-4221
▁에도	-4222
류가	-4223
▁미디어	-4224
▁상륙	-4225
▁Q	-4226
식에	-4227
▁한번	-4228
▁제공한다	-4229
▁사운드	-4230
문은	-4231
▁신인	-4232
▁곳에서	-4233
▁웨스트	-4234
만은	-4235
▁좁	-4236
인민공화국의	-4237
▁그런데	-4238
▁부상	-4239
.”	-4240
당과	-4241
▁독자	-4242
▁수집	-4243
▁코로나	-4244
▁이용해	-4245
▁탈출	-4246
▁중이다	-4247
음이	-4248
르가	-4249
_5	-4250
전문	-4251
▁랭	-4252
▁쫓	-4253
▁양자	-4254
▁자녀	-4255
▁출연하였다	-4256
▁종류의	-4257
▁명이	-4258
▁스케	-4259
▁때부터	-4260
▁표면	-4261
였으나	-4262
씨는	-4263
▁이뤄	-4264
▁중세	-4265
▁쥐	-4266
▁깊은	-4267
▁밀도는	-4268
▁에어	-4269
▁일부는	-4270
ure	-4271
▁분쟁	-4272
▁체계	-4273
크를	-4274
지자	-4275
▁55	-4276
ys	-4277
31	-4278
67	-4279
조합	-4280
▁1944	-4281
데이	-4282
라를	-4283
드시	-4284
▁탈락	-4285
▁주고	-4286
▁영입	-4287
▁시작하여	-4288
형으로	-4289
▁다르다	-4290
▁1956	-4291
▁베이스	-4292
리우스	-4293
나이티	-4294
SS	-4295
▁건국	-4296
▁예측	-4297
▁자는	-4298
▁댄	-4299
▁대공	-4300
▁두었다	-4301
▁니콜	-4302
▁얻어	-4303
▁렌	-4304
▁청년	-4305
▁히데	-4306
▁집행	-4307
▁프리미	-4308
▁음반은	-4309
단과	-4310
▁육상	-4311
▁미니	-4312
▁도망	-4313
▁도중	-4314
)’	-4315
▁콘서	-4316
▁평가를	-4317
시스	-4318
▁총리	-4319
선으로	-4320
▁타이완	-4321
화되었다	-4322
▁반발	-4323
ens	-4324
▁공통	-4325
▁지낸	-4326
▁지금의	-4327
▁1947	-4328
▁외부	-4329
▁기술을	-4330
▁상승	-4331
one	-4332
▁발표하였다	-4333
소와	-4334
화되어	-4335
▁특별한	-4336
보는	-4337
▁세종	-4338
리즘	-4339
▁해서	-4340
▁이들의	-4341
페이	-4342
▁이전의	-4343
▁발견된	-4344
▁하면	-4345
▁보장	-4346
▁트로	-4347
▁응용	-4348
AR	-4349
조사	-4350
▁선보	-4351
▁피해를	-4352
▁청나라	-4353
2,	-4354
▁붙여	-4355
에만	-4356
메리	-4357
▁수송	-4358
▁후지	-4359
▁수사	-4360
▁썼다	-4361
▁꼭	-4362
차원	-4363
▁그레	-4364
▁나는	-4365
▁유나이티	-4366
ON	-4367
▁군대를	-4368
▁이용한	-4369
물이다	-4370
훗날	-4371
man	-4372
▁k	-4373
▁올리	-4374
▁세인트	-4375
기에서	-4376
▁공화	-4377
▁브루	-4378
▁시작으로	-4379
▁1959	-4380
▁포함하여	-4381
▁달라	-4382
▁킬	-4383
▁전라북도	-4384
법이	-4385
▁마지막으로	-4386
공사	-4387
▁경기는	-4388
▁보아	-4389
▁불안	-4390
▁노부	-4391
▁운전	-4392
▁장관	-4393
38	-4394
연맹	-4395
▁전공	-4396
생을	-4397
▁켄	-4398
의의	-4399
▁포위	-4400
▁뜻으로	-4401
▁이것을	-4402
되면	-4403
교를	-4404
▁구속	-4405
▁대부분은	-4406
▁해에	-4407
▁개발한	-4408
요시	-4409
▁진화	-4410
리적	-4411
▁아미	-4412
68	-4413
▁맞이	-4414
▁아들이	-4415
▁총독	-4416
ord	-4417
▁빠져	-4418
BA	-4419
타르	-4420
▁행성	-4421
▁컵	-4422
프를	-4423
▁보낸	-4424
▁출신으로	-4425
차가	-4426
터리	-4427
▁층	-4428
▁완료	-4429
▁미야	-4430
▁존재하는	-4431
▁생긴	-4432
▁이후로	-4433
▁행정구	-4434
모를	-4435
▁조절	-4436
▁소장	-4437
▁목표로	-4438
▁1941	-4439
테네	-4440
히는	-4441
▁왼쪽	-4442
구에서	-4443
▁체코	-4444
▁복합	-4445
ove	-4446
▁지식	-4447
▁앞에	-4448
▁작품이다	-4449
▁대학교에서	-4450
▁제어	-4451
씨의	-4452
생물	-4453
▁신성	-4454
▁했던	-4455
▁써	-4456
▁이하	-4457
▁변경되었다	-4458
▁나타내는	-4459
▁맛	-4460
▁능력을	-4461
▁1954	-4462
▁활성	-4463
▁제외하고	-4464
St	-4465
▁아사	-4466
적의	-4467
▁받았고	-4468
▁레코드에	-4469
▁챔피언스리그	-4470
마르	-4471
▁Th	-4472
▁각각의	-4473
강점	-4474
▁틀	-4475
▁생명	-4476
▁내의	-4477
▁전철	-4478
▁FA	-4479
▁연출	-4480
▁독특	-4481
▁벡	-4482
▁경성	-4483
▁불법	-4484
▁1952	-4485
▁니시	-4486
▁사용되고	-4487
▁꺾	-4488
▁장면	-4489
~19	-4490
▁작품은	-4491
▁알려졌다	-4492
▁연관	-4493
님의	-4494
라와	-4495
▁3,	-4496
▁회전	-4497
▁요코	-4498
▁문헌	-4499
▁스미	-4500
▁콘스탄	-4501
▁맡아	-4502
▁대성	-4503
▁선수가	-4504
통을	-4505
▁최다	-4506
▁돌아가	-4507
IV	-4508
▁주둔	-4509
기까지	-4510
시에서	-4511
▁st	-4512
▁프로세	-4513
39	-4514
통신	-4515
io	-4516
▁셋	-4517
▁지어	-4518
▁것이며	-4519
국제	-4520
▁해양	-4521
▁가서	-4522
▁포함한다	-4523
▁흉	-4524
▁한반	-4525
▁늦	-4526
곡을	-4527
국가	-4528
ith	-4529
▁남은	-4530
▁그들이	-4531
▁시즌에	-4532
▁갈라	-4533
터를	-4534
▁소녀	-4535
▁감독을	-4536
▁출시되었다	-4537
▁진압	-4538
▁사건이	-4539
▁끝난	-4540
터는	-4541
▁PC	-4542
ev	-4543
▁검사	-4544
▁받게	-4545
▁열렸다	-4546
▁역사적	-4547
티노	-4548
▁기록하였다	-4549
해도	-4550
▁강의	-4551
▁갤	-4552
▁인구의	-4553
▁1919	-4554
▁기대	-4555
▁어떠	-4556
▁1939	-4557
세한	-4558
▁차트	-4559
▁자살	-4560
▁연재	-4561
▁향상	-4562
▁대수	-4563
▁출간	-4564
▁이시	-4565
▁다수의	-4566
ct	-4567
▁그레이	-4568
▁데이비드	-4569
▁시카	-4570
▁방사	-4571
리나	-4572
▁등급	-4573
▁정확한	-4574
ment	-4575
▁오페	-4576
▁해산	-4577
▁제대로	-4578
AT	-4579
▁그와	-4580
▁경우는	-4581
▁베스트	-4582
▁합성	-4583
▁빙	-4584
▁박정	-4585
▁때의	-4586
▁높이는	-4587
▁장군	-4588
▁우려	-4589
▁목소	-4590
▁터널	-4591
▁정치인이다	-4592
▁지키	-4593
▁논란이	-4594
▁운동을	-4595
▁활동하였다	-4596
브라	-4597
▁잡아	-4598
▁전통적인	-4599
▁만주	-4600
▁개최된	-4601
66	-4602
▁정책을	-4603
하였지만	-4604
ind	-4605
▁합격	-4606
▁이집트	-4607
▁75	-4608
▁나치	-4609
▁일제강점	-4610
▁개신	-4611
▁거두었다	-4612
▁김영	-4613
▁배출	-4614
▁이성	-4615
▁카르	-4616
▁풍부	-4617
▁전파	-4618
▁말았다	-4619
미의	-4620
▁보관	-4621
인도	-4622
▁성적	-4623
▁세력	-4624
▁나이로	-4625
ff	-4626
프랑	-4627
▁오른쪽	-4628
▁지니	-4629
도서	-4630
▁1955	-4631
▁교환	-4632
▁선교	-4633
▁액션	-4634
국으로	-4635
▁학위를	-4636
ust	-4637
▁둘째	-4638
▁채용	-4639
▁변환	-4640
라이언	-4641
▁동원	-4642
▁원년	-4643
▁점점	-4644
민주당	-4645
▁반드시	-4646
▁주택	-4647
산화	-4648
▁고속	-4649
▁위반	-4650
▁여기에	-4651
34	-4652
▁인접	-4653
▁탁	-4654
산에	-4655
▁세르비아	-4656
▁않으며	-4657
정치	-4658
▁벼	-4659
▁사태	-4660
▁연구를	-4661
조직	-4662
기원전	-4663
▁공을	-4664
미는	-4665
▁재건	-4666
명에	-4667
▁동성	-4668
▁리더	-4669
▁둘러싸	-4670
치아	-4671
▁도쿠	-4672
▁엄청	-4673
iv	-4674
들이다	-4675
▁소비에트	-4676
론의	-4677
▁소속으로	-4678
토리	-4679
▁검찰	-4680
▁갖는	-4681
▁효율	-4682
▁단독	-4683
IA	-4684
-5	-4685
77	-4686
부인	-4687
났고	-4688
▁의무	-4689
▁1953	-4690
게임	-4691
▁한국에서	-4692
▁승진	-4693
▁공군	-4694
투스	-4695
▁동작	-4696
▁포도	-4697
종을	-4698
머스	-4699
질랜드	-4700
▁대기	-4701
▁소년	-4702
▁장치	-4703
▁치러	-4704
겠다	-4705
▁자이	-4706
▁방영된	-4707
▁프로듀서	-4708
▁닥	-4709
▁국제공항	-4710
▁가졌다	-4711
▁교육을	-4712
ont	-4713
에이	-4714
▁왕국의	-4715
▁나타난다	-4716
▁주관	-4717
▁현역	-4718
▁올랐	-4719
▁상품	-4720
▁모아	-4721
▁농민	-4722
▁받을	-4723
▁헨리	-4724
▁상당한	-4725
▁국무	-4726
패를	-4727
기간	-4728
▁뜻하는	-4729
▁1957	-4730
▁마케	-4731
바로	-4732
행위	-4733
▁아들로	-4734
▁스페인의	-4735
▁법칙	-4736
2)	-4737
▁지급	-4738
▁형태를	-4739
▁일정	-4740
▁일치	-4741
▁롯데	-4742
▁창조	-4743
레오	-4744
▁이루어졌다	-4745
었다고	-4746
▁있음을	-4747
미를	-4748
▁분할	-4749
체육	-4750
▁팝	-4751
석은	-4752
▁명확	-4753
지컬	-4754
▁학습	-4755
섰다	-4756
▁받는다	-4757
▁사법	-4758
▁영화는	-4759
▁가을	-4760
▁발견되었다	-4761
▁신뢰	-4762
▁차별	-4763
주의를	-4764
▁음식	-4765
리다	-4766
▁알파	-4767
▁하나인	-4768
항을	-4769
▁헤르	-4770
▁지붕	-4771
▁적절	-4772
▁파악	-4773
▁플레이오프	-4774
▁쓸	-4775
▁작업을	-4776
▁닌	-4777
사관	-4778
▁천연	-4779
▁완전	-4780
들로부터	-4781
▁태어났으며	-4782
▁연대	-4783
▁성능	-4784
▁계기로	-4785
▁릴	-4786
▁일찍	-4787
크가	-4788
▁파라	-4789
▁가나	-4790
▁재배	-4791
▁카운티	-4792
동으로	-4793
▁기상	-4794
▁덧	-4795
▁학문	-4796
▁아버지는	-4797
▁어떠한	-4798
▁트랜	-4799
▁톰	-4800
▁실질	-4801
▁글을	-4802
그라	-4803
재판	-4804
▁저작	-4805
▁보안	-4806
▁아티	-4807
▁특이	-4808
선과	-4809
왕이	-4810
성군	-4811
▁국도	-4812
▁조작	-4813
84	-4814
▁조별	-4815
▁무덤	-4816
락을	-4817
▁되자	-4818
장인	-4819
▁제작한	-4820
81	-4821
▁후기	-4822
겠다는	-4823
▁감독이	-4824
▁쓰는	-4825
▁자신들의	-4826
▁한정	-4827
▁예비	-4828
▁완공	-4829
▁마침내	-4830
텐츠	-4831
병을	-4832
▁모양의	-4833
제와	-4834
▁것이라는	-4835
▁페르시아	-4836
▁지냈	-4837
▁DNA	-4838
고는	-4839
▁통산	-4840
▁포함하고	-4841
▁지방의	-4842
▁챔피언십	-4843
우주	-4844
▁켈	-4845
▁많아	-4846
▁반대로	-4847
으니	-4848
▁홋	-4849
▁테러	-4850
▁늘어	-4851
드라	-4852
▁전주	-4853
▁빼앗	-4854
천군	-4855
▁마이크로소프트	-4856
▁1942	-4857
틀러	-4858
부터는	-4859
천시	-4860
▁사우	-4861
▁코드	-4862
▁그렇게	-4863
▁까	-4864
고기	-4865
▁SK	-4866
디션	-4867
▁모여	-4868
▁비례	-4869
뮤니	-4870
▁들어서	-4871
au	-4872
▁말에	-4873
▁Com	-4874
▁서버	-4875
▁불렀다	-4876
퍼드	-4877
▁인지	-4878
▁크로아	-4879
산시	-4880
▁삽	-4881
▁유기	-4882
▁중인	-4883
망을	-4884
▁테이	-4885
▁분열	-4886
▁역은	-4887
▁34	-4888
상태	-4889
▁협회	-4890
▁뉴질랜드	-4891
▁횡	-4892
쿠스	-4893
▁승객	-4894
▁창단	-4895
없는	-4896
토의	-4897
▁진보	-4898
▁샘	-4899
스포	-4900
토니	-4901
sh	-4902
▁없다는	-4903
▁느끼	-4904
▁음악을	-4905
전과	-4906
▁시상	-4907
▁출범	-4908
▁페이	-4909
▁선정되었다	-4910
사이트	-4911
▁문제로	-4912
방을	-4913
▁경제적	-4914
▁감독으로	-4915
공화국	-4916
▁메시	-4917
▁나왔다	-4918
EC	-4919
▁정차	-4920
▁미군	-4921
▁1943	-4922
개로	-4923
레인	-4924
▁로스앤젤레스	-4925
▁관계가	-4926
▁의미를	-4927
판이	-4928
▁군주	-4929
▁프로그램을	-4930
조판	-4931
▁경주	-4932
▁혼합	-4933
이므로	-4934
▁구현	-4935
▁개막	-4936
진의	-4937
▁시에	-4938
▁향해	-4939
▁An	-4940
▁레오	-4941
시키기	-4942
일과	-4943
▁취소	-4944
▁당시에는	-4945
▁KBO	-4946
pe	-4947
▁훗날	-4948
▁설립되었다	-4949
▁어린이	-4950
▁폐쇄	-4951
▁묶	-4952
▁픽	-4953
▁나뉜	-4954
▁대통령이	-4955
▁바라	-4956
▁메인	-4957
미가	-4958
조로	-4959
박물	-4960
카이도	-4961
▁가스	-4962
▁방면	-4963
▁신청	-4964
▁독립운동	-4965
▁크고	-4966
▁갔다	-4967
▁제이	-4968
▁제공하는	-4969
거운	-4970
▁임진	-4971
▁무게	-4972
▁기록이	-4973
▁이후의	-4974
▁민주당	-4975
오스	-4976
1,	-4977
경이	-4978
주의의	-4979
▁무시	-4980
▁하위	-4981
▁긍	-4982
▁관료	-4983
▁접촉	-4984
▁시작된	-4985
99	-4986
▁띄	-4987
▁속한	-4988
▁진행되었다	-4989
▁자극	-4990
▁바깥	-4991
▁오스만	-4992
▁일부를	-4993
▁처형	-4994
▁극장	-4995
▁만들어졌다	-4996
슬러	-4997
▁올려	-4998
동은	-4999
▁이름의	-5000
▁주장하였다	-5001
▁주전	-5002
▁관련이	-5003
▁이룬다	-5004
▁차이	-5005
ood	-5006
연히	-5007
▁되며	-5008
▁곡은	-5009
슨의	-5010
▁오랫	-5011
학에서	-5012
▁희생	-5013
▁후보로	-5014
▁마치	-5015
르기	-5016
▁통계	-5017
▁학술	-5018
책을	-5019
▁확률	-5020
▁아라	-5021
임이	-5022
현의	-5023
으로서의	-5024
▁수영	-5025
▁부르는	-5026
▁금메달을	-5027
파는	-5028
비스	-5029
ory	-5030
했었다	-5031
▁등장한다	-5032
▁리처	-5033
▁마무	-5034
▁분위	-5035
▁사람들의	-5036
범위	-5037
선수	-5038
▁스탠	-5039
▁흘러	-5040
ock	-5041
터가	-5042
고속도로	-5043
▁임대	-5044
고의	-5045
▁발굴	-5046
▁덴마크	-5047
▁것이라	-5048
▁인종	-5049
▁에피소드	-5050
▁꼽	-5051
해가	-5052
개혁	-5053
이센	-5054
▁고유	-5055
82	-5056
▁구역	-5057
▁영상	-5058
원이다	-5059
ark	-5060
▁시리아	-5061
▁스프	-5062
▁역이다	-5063
ary	-5064
mer	-5065
▁샤를	-5066
▁규모의	-5067
▁저서	-5068
per	-5069
▁좌우	-5070
▁형사	-5071
강의	-5072
자들에게	-5073
가시	-5074
▁신호	-5075
Pa	-5076
▁오랫동안	-5077
름을	-5078
▁간행	-5079
▁심각한	-5080
▁택	-5081
계획	-5082
(2	-5083
타는	-5084
주었다	-5085
▁단계	-5086
▁합쳐	-5087
(),	-5088
▁조종	-5089
하였다고	-5090
▁방법으로	-5091
▁활동하고	-5092
▁새겨	-5093
▁부분을	-5094
▁목록이다	-5095
▁없으며	-5096
▁나타낸다	-5097
▁하였으며	-5098
금의	-5099
▁추천	-5100
▁작곡가	-5101
▁Ar	-5102
▁사립	-5103
▁시작한다	-5104
▁캔	-5105
ational	-5106
▁하였으나	-5107
▁역으로	-5108
년경	-5109
ond	-5110
▁절반	-5111
무부	-5112
▁아스	-5113
▁직업	-5114
▁경우에	-5115
▁성향	-5116
화한	-5117
▁사용된	-5118
▁새롭게	-5119
였지만	-5120
이었지만	-5121
터의	-5122
▁무너	-5123
▁방정	-5124
자로서	-5125
▁개입	-5126
사스	-5127
▁화물	-5128
스트로	-5129
▁스카	-5130
▁160	-5131
진은	-5132
티오	-5133
▁쓰고	-5134
ect	-5135
▁상위	-5136
▁터미널	-5137
▁로켓	-5138
▁훌	-5139
▁프라	-5140
▁주장한다	-5141
▁함락	-5142
▁헝가리	-5143
▁지내	-5144
▁설치된	-5145
복을	-5146
▁변화를	-5147
▁스마트	-5148
경은	-5149
▁플래	-5150
마을	-5151
▁미드필	-5152
▁아르헨티나	-5153
표를	-5154
▁시위	-5155
▁사냥	-5156
▁실현	-5157
▁1936	-5158
▁1951	-5159
▁고문	-5160
▁파트	-5161
니가	-5162
▁가지는	-5163
대장	-5164
▁지은	-5165
▁단편	-5166
▁누구	-5167
In	-5168
▁지위를	-5169
▁기둥	-5170
하였던	-5171
▁사망한	-5172
ah	-5173
▁코르	-5174
▁여겨진다	-5175
자료	-5176
▁국회	-5177
▁얻은	-5178
석의	-5179
층의	-5180
▁국민의	-5181
▁독특한	-5182
▁기울	-5183
에서만	-5184
▁행위	-5185
지어	-5186
질이	-5187
▁장교	-5188
진이	-5189
▁인구가	-5190
▁분명	-5191
레옹	-5192
▁지시	-5193
▁정기	-5194
▁그때	-5195
▁당초	-5196
▁주어진	-5197
▁곡을	-5198
▁고속도로	-5199
▁스키	-5200
▁발생하는	-5201
카가	-5202
▁65	-5203
▁노벨	-5204
▁노출	-5205
▁내용은	-5206
vers	-5207
▁미드필더	-5208
▁i	-5209
타마	-5210
▁대개	-5211
▁섞	-5212
네이	-5213
▁시리즈의	-5214
▁잡지	-5215
▁받아들여	-5216
▁주지	-5217
공산	-5218
▁지금까지	-5219
시험	-5220
▁충청북도	-5221
▁일어났다	-5222
우수	-5223
▁발발	-5224
▁상대적으로	-5225
안은	-5226
▁명칭은	-5227
▁사임	-5228
행정	-5229
▁혐의로	-5230
▁연결하는	-5231
▁마크	-5232
▁하에	-5233
74	-5234
▁돕	-5235
▁김정	-5236
되었다고	-5237
▁다운	-5238
련의	-5239
▁대회에	-5240
각을	-5241
▁녹색	-5242
▁저술	-5243
체와	-5244
▁–	-5245
▁아이디	-5246
▁유럽의	-5247
사무	-5248
▁1938	-5249
▁쳐	-5250
▁왕조	-5251
▁성적을	-5252
리그의	-5253
▁마르크	-5254
▁지역으로	-5255
61	-5256
▁위성	-5257
▁항성	-5258
론은	-5259
▁소송	-5260
▁않게	-5261
들에서	-5262
▁예정이다	-5263
▁변형	-5264
▁상태로	-5265
▁도요	-5266
▁콤	-5267
▁확립	-5268
▁후계	-5269
▁사람들을	-5270
78	-5271
▁노래를	-5272
▁관여	-5273
▁유행	-5274
사랑	-5275
자유	-5276
▁등판	-5277
어이다	-5278
▁참여했다	-5279
▁빅토	-5280
▁빌보드	-5281
격한	-5282
▁네이	-5283
인들을	-5284
▁유일하게	-5285
▁참전	-5286
▁잉글랜드의	-5287
▁처벌	-5288
방의	-5289
▁길을	-5290
▁예수	-5291
▁쓰이는	-5292
해져	-5293
▁단위	-5294
▁부대	-5295
iz	-5296
▁받았으며	-5297
소설	-5298
▁프리미어	-5299
ide	-5300
▁기회를	-5301
▁이르러	-5302
▁중에는	-5303
▁부산광역시	-5304
차전	-5305
▁반도	-5306
▁퀸	-5307
▁주최	-5308
▁보았다	-5309
사단	-5310
▁공헌	-5311
79	-5312
▁공연을	-5313
야구	-5314
▁입장을	-5315
▁보유하고	-5316
▁언제	-5317
서양	-5318
▁긍정	-5319
▁부상을	-5320
▁대리	-5321
▁편찬	-5322
▁행동을	-5323
▁올렸다	-5324
▁전직	-5325
드레	-5326
기념	-5327
▁가와	-5328
▁급제	-5329
▁김일	-5330
동맹	-5331
▁계통	-5332
▁연구에	-5333
▁정지	-5334
신으로	-5335
▁명을	-5336
▁다르게	-5337
▁다스	-5338
▁펼쳐	-5339
▁뚜	-5340
▁엠	-5341
치게	-5342
▁이들을	-5343
▁앉	-5344
ack	-5345
무늬	-5346
▁120	-5347
▁크기	-5348
▁개신교	-5349
▁지켜	-5350
자키	-5351
▁침략	-5352
▁로드	-5353
▁근본	-5354
▁찰스	-5355
▁철수	-5356
린은	-5357
▁커뮤니	-5358
▁테스트	-5359
▁동아	-5360
미니	-5361
▁어디	-5362
내에	-5363
▁출장	-5364
▁도시의	-5365
ck	-5366
▁나폴레옹	-5367
▁어깨	-5368
차는	-5369
▁공업	-5370
▁프로그래	-5371
▁인쇄	-5372
▁안에서	-5373
63	-5374
MA	-5375
▁부하	-5376
▁드라이	-5377
▁사용했다	-5378
▁저녁	-5379
71	-5380
▁전형	-5381
건을	-5382
com	-5383
ric	-5384
▁로봇	-5385
▁시스템을	-5386
▁멀리	-5387
라며	-5388
▁코파	-5389
하지는	-5390
▁세계의	-5391
▁다다	-5392
▁보병	-5393
▁중화민국	-5394
스럽게	-5395
▁대한민국에서는	-5396
▁갔	-5397
▁죽었다	-5398
▁Sh	-5399
▁강등	-5400
▁광범위	-5401
▁침입	-5402
▁홍보	-5403
▁만들고	-5404
▁어려운	-5405
▁상황에서	-5406
동생	-5407
▁의식	-5408
령이	-5409
▁이기	-5410
▁전면	-5411
▁벌어	-5412
▁일본에	-5413
장관	-5414
었기	-5415
루가	-5416
재로	-5417
▁캐나다의	-5418
▁대표하는	-5419
실은	-5420
온은	-5421
▁연간	-5422
eb	-5423
▁다수	-5424
▁효과를	-5425
▁후원	-5426
구이다	-5427
▁장남	-5428
▁골을	-5429
▁재개	-5430
▁팽	-5431
ence	-5432
▁번의	-5433
▁가치	-5434
▁일으키	-5435
▁앞에서	-5436
▁영국에서	-5437
함과	-5438
▁뮤지컬	-5439
나카	-5440
▁1937	-5441
튜브	-5442
▁제일	-5443
▁도와	-5444
▁.	-5445
구치	-5446
▁필요하다	-5447
타운	-5448
▁뜨	-5449
▁그래픽	-5450
▁바닥	-5451
▁성을	-5452
고가	-5453
아르	-5454
안이	-5455
파를	-5456
▁내렸다	-5457
▁졸업하고	-5458
▁전까지	-5459
▁거듭	-5460
▁보여준다	-5461
리며	-5462
▁맡은	-5463
▁연산	-5464
▁나타내	-5465
▁츠	-5466
씨가	-5467
트릭	-5468
주의적	-5469
드라마	-5470
▁참가했다	-5471
ass	-5472
▁지도자	-5473
▁Be	-5474
▁완전한	-5475
▁1910	-5476
▁바뀌었다	-5477
▁이혼	-5478
니스탄	-5479
메리칸	-5480
▁소련의	-5481
▁Me	-5482
미르	-5483
69	-5484
▁존재하지	-5485
관계	-5486
▁놓고	-5487
▁성공을	-5488
의원	-5489
▁추구	-5490
▁올림픽에	-5491
▁다소	-5492
체스터	-5493
▁망명	-5494
▁싱가	-5495
▁떠났다	-5496
백만	-5497
▁나타났다	-5498
▁힌	-5499
되었다가	-5500
▁현상	-5501
동시	-5502
VD	-5503
서울	-5504
▁다케	-5505
▁나뉜다	-5506
72	-5507
물에	-5508
▁브라운	-5509
▁루마	-5510
▁해야	-5511
되는데	-5512
▁1914	-5513
ug	-5514
▁안드로	-5515
▁프리드리	-5516
▁라이트	-5517
▁적합	-5518
시리즈	-5519
▁조선의	-5520
▁계곡	-5521
▁시나	-5522
▁일시	-5523
▁프린	-5524
론이	-5525
▁인권	-5526
▁1935	-5527
로와	-5528
▁중부	-5529
▁가담	-5530
▁정비	-5531
▁아이돌	-5532
▁해상	-5533
실의	-5534
▁데에	-5535
-4	-5536
ID	-5537
▁지금은	-5538
▁필요가	-5539
▁소멸	-5540
▁준다	-5541
▁메이지	-5542
▁분노	-5543
▁나아가	-5544
▁Coun	-5545
▁You	-5546
▁가문의	-5547
▁가슴	-5548
▁특정한	-5549
고등	-5550
▁황금	-5551
73	-5552
▁가치가	-5553
oy	-5554
▁매일	-5555
))	-5556
▁re	-5557
▁의심	-5558
▁내셔널	-5559
족이	-5560
▁사업을	-5561
또는	-5562
색의	-5563
역과	-5564
▁설득	-5565
▁정체	-5566
▁느낌	-5567
▁작품으로	-5568
에른	-5569
▁두려	-5570
IN	-5571
▁따로	-5572
▁전부	-5573
▁해리	-5574
▁소방	-5575
▁않지만	-5576
▁알바	-5577
▁대부분이	-5578
보고	-5579
▁Pro	-5580
▁신학	-5581
▁오프	-5582
DP	-5583
▁듣고	-5584
▁초에	-5585
▁반란을	-5586
공원	-5587
우의	-5588
▁구글	-5589
하므로	-5590
▁포함된다	-5591
혁명	-5592
▁선박	-5593
▁미사일	-5594
타카	-5595
▁특징이다	-5596
▁돈을	-5597
ial	-5598
▁유치	-5599
류는	-5600
총독	-5601
▁문을	-5602
tive	-5603
ris	-5604
관에서	-5605
▁지상역이다	-5606
▁시카고	-5607
중국	-5608
▁영웅	-5609
▁투쟁	-5610
▁들고	-5611
▁높다	-5612
▁그곳에서	-5613
▁신체	-5614
영의	-5615
▁데뷔했다	-5616
▁가이	-5617
▁1932	-5618
▁올림픽에서	-5619
▁1918	-5620
▁커버	-5621
▁개조	-5622
▁발탁	-5623
▁돼	-5624
62	-5625
정과	-5626
▁사실이	-5627
▁닛	-5628
▁석유	-5629
기록	-5630
페르	-5631
었을	-5632
▁프로이센	-5633
ire	-5634
▁바르셀	-5635
▁공화국의	-5636
An	-5637
▁미국과	-5638
▁이루고	-5639
어야	-5640
치지	-5641
▁공중	-5642
▁자리잡	-5643
▁게임이다	-5644
켓몬	-5645
▁다음의	-5646
ib	-5647
▁+	-5648
▁나타나는	-5649
▁1933	-5650
▁운영하고	-5651
함이	-5652
투아	-5653
▁가진다	-5654
▁논문	-5655
▁인용	-5656
▁도시이다	-5657
독립	-5658
▁말레이시아	-5659
ear	-5660
▁개설	-5661
▁군인	-5662
▁여객철도	-5663
▁기다	-5664
BM	-5665
파가	-5666
▁벗어나	-5667
▁있었기	-5668
피스	-5669
▁구매	-5670
▁시인	-5671
베르트	-5672
어에서	-5673
▁편이다	-5674
▁엄청난	-5675
퍼스	-5676
▁선생	-5677
▁살인	-5678
(5	-5679
▁~)	-5680
▁가게	-5681
▁수요	-5682
동과	-5683
▁단지	-5684
▁선거를	-5685
동물	-5686
▁몰아	-5687
주고	-5688
▁로마의	-5689
▁활약을	-5690
▁밝히	-5691
왜란	-5692
ost	-5693
▁획득했다	-5694
▁토지	-5695
별로	-5696
타의	-5697
100	-5698
age	-5699
rom	-5700
▁일부가	-5701
▁장비	-5702
▁뮌	-5703
▁영업	-5704
▁속해	-5705
▁화합	-5706
▁블라	-5707
▁참조	-5708
▁Al	-5709
▁파르	-5710
마는	-5711
▁39	-5712
달러	-5713
케이	-5714
ton	-5715
▁자격	-5716
▁춤	-5717
▁학살	-5718
다의	-5719
색으로	-5720
▁상하이	-5721
▁삼국	-5722
▁탈퇴	-5723
▁프로토	-5724
▁즉시	-5725
강에	-5726
▁개칭	-5727
▁쓰여	-5728
▁48	-5729
▁부친	-5730
▁서울대학교	-5731
▁기록은	-5732
▁접한다	-5733
▁세계적으로	-5734
▁카드	-5735
▁작동	-5736
▁의혹	-5737
▁AFC	-5738
▁세력을	-5739
▁노스	-5740
▁대통령은	-5741
▁돌아와	-5742
▁겹	-5743
▁평안	-5744
▁부분이	-5745
타로	-5746
▁에르	-5747
now	-5748
▁법정	-5749
▁조지아	-5750
되어야	-5751
▁벌어진	-5752
▁이상이	-5753
▁곽	-5754
듯이	-5755
▁나누어	-5756
야의	-5757
대중	-5758
▁대체로	-5759
▁시드	-5760
▁만든다	-5761
▁남쪽으로	-5762
▁혈액	-5763
▁1928	-5764
▁부분은	-5765
▁유한	-5766
▁리버	-5767
▁구입	-5768
▁선전	-5769
aw	-5770
▁공사	-5771
▁피터	-5772
▁원주민	-5773
▁어머니는	-5774
▁레알	-5775
▁1934	-5776
sp	-5777
▁오버	-5778
▁프랑크	-5779
소송	-5780
▁시사	-5781
▁통상	-5782
법으로	-5783
▁운영하는	-5784
감독	-5785
천만	-5786
▁순간	-5787
장애	-5788
부대	-5789
▁골든	-5790
▁근육	-5791
▁그로	-5792
▁임무	-5793
ath	-5794
보살	-5795
tern	-5796
▁바이에른	-5797
관과	-5798
(20	-5799
▁눈에	-5800
▁여섯	-5801
▁루이스	-5802
▁지지를	-5803
▁끌어	-5804
▁얻을	-5805
제에서	-5806
▁이끌었다	-5807
▁게임을	-5808
ive	-5809
즈가	-5810
▁도모	-5811
포를	-5812
▁포함하는	-5813
▁맞아	-5814
▁해도	-5815
▁있었다고	-5816
▁유형문화재	-5817
점의	-5818
▁다리	-5819
▁역사를	-5820
▁IS	-5821
▁스트리	-5822
데르	-5823
영은	-5824
키가	-5825
▁주장을	-5826
▁추가로	-5827
▁일컫	-5828
▁전력	-5829
▁타임	-5830
학자들은	-5831
▁이름이다	-5832
▁억제	-5833
코는	-5834
IC	-5835
가인	-5836
▁갖추고	-5837
▁심리	-5838
▁종사	-5839
▁일어나는	-5840
년도	-5841
amp	-5842
되지만	-5843
▁상을	-5844
▁랜	-5845
례를	-5846
▁위로	-5847
됨에	-5848
▁한글	-5849
▁남아프리카	-5850
▁명나라	-5851
▁지속적으로	-5852
▁자리에	-5853
▁임진왜란	-5854
루는	-5855
바일	-5856
▁더블	-5857
▁세상을	-5858
▁외국인	-5859
▁묵	-5860
양의	-5861
▁작사	-5862
▁창원	-5863
▁덜	-5864
시스코	-5865
▁군이다	-5866
들목	-5867
▁동해	-5868
▁천주교	-5869
▁화이트	-5870
▁기록하며	-5871
비시	-5872
▁방지	-5873
▁군의	-5874
▁집권	-5875
▁행렬	-5876
▁나온다	-5877
▁닫	-5878
디움	-5879
▁교향	-5880
▁근처에	-5881
더스	-5882
▁밝혀졌다	-5883
▁박정희	-5884
AN	-5885
연을	-5886
▁수석	-5887
orld	-5888
▁깃	-5889
▁파워	-5890
코의	-5891
▁1924	-5892
왕은	-5893
▁현지	-5894
위와	-5895
직에	-5896
▁방해	-5897
▁게다가	-5898
▁그것이	-5899
▁즈	-5900
▁오직	-5901
▁포스트	-5902
1)	-5903
iss	-5904
▁불렸다	-5905
ach	-5906
▁따서	-5907
▁기소	-5908
▁비상	-5909
▁이로써	-5910
강을	-5911
한의	-5912
▁궤도	-5913
▁연고	-5914
▁위원회	-5915
▁이전에는	-5916
▁데뷔하였다	-5917
오의	-5918
파로	-5919
▁준우승	-5920
▁이후에도	-5921
▁문제에	-5922
▁곳으로	-5923
키의	-5924
▁징역	-5925
▁대통령의	-5926
▁NH	-5927
▁프랭	-5928
▁나들목	-5929
▁아들인	-5930
▁보스	-5931
▁원소	-5932
환으로	-5933
양을	-5934
▁개체	-5935
▁호소	-5936
이상	-5937
▁양의	-5938
담을	-5939
▁분해	-5940
▁방식을	-5941
▁수리	-5942
▁못하는	-5943
▁내용이	-5944
▁와이	-5945
▁사단	-5946
▁상황을	-5947
파이	-5948
사람	-5949
질의	-5950
▁북쪽으로	-5951
▁연예	-5952
▁열차가	-5953
▁가마	-5954
▁프리드리히	-5955
ace	-5956
▁연습	-5957
▁태국	-5958
입니다	-5959
▁참가한	-5960
▁남겼다	-5961
▁힙	-5962
▁자전	-5963
▁스티븐	-5964
년부터는	-5965
▁후임	-5966
▁톱	-5967
받는	-5968
▁도전	-5969
리언	-5970
▁점이	-5971
▁분야에서	-5972
AM	-5973
▁조카	-5974
▁마무리	-5975
▁연결되어	-5976
루의	-5977
▁쿠데	-5978
츠의	-5979
▁능력	-5980
▁대장	-5981
▁멜로	-5982
▁노르웨이	-5983
▁권력을	-5984
▁일정한	-5985
▁굳	-5986
▁개별	-5987
▁해발	-5988
▁1900	-5989
▁AT	-5990
자동차	-5991
▁이른다	-5992
▁나고	-5993
▁멘	-5994
▁희망	-5995
▁다음날	-5996
▁복잡한	-5997
▁진주	-5998
▁폴리	-5999
에선	-6000
만으로	-6001
스트라	-6002
▁부진	-6003
▁똑	-6004
▁한나라	-6005
▁말하는	-6006
▁초기의	-6007
▁않으면	-6008
▁조선시대	-6009
▁명령을	-6010
▁라고	-6011
▁의학	-6012
▁이들이	-6013
처를	-6014
▁무사	-6015
▁잠수	-6016
그램	-6017
55	-6018
▁가공	-6019
▁복원	-6020
▁유고	-6021
▁정권	-6022
루를	-6023
평균	-6024
▁이어지는	-6025
PS	-6026
-20	-6027
▁티베	-6028
▁병합	-6029
3,	-6030
는지	-6031
과대학	-6032
▁웅	-6033
▁복무	-6034
▁이웃	-6035
▁화산	-6036
▁위치를	-6037
▁인디언	-6038
▁사용하였다	-6039
me	-6040
▁첼	-6041
리안	-6042
▁김성	-6043
▁책임을	-6044
▁프라이	-6045
베스	-6046
▁밀려	-6047
▁후쿠오카	-6048
코스	-6049
▁상속	-6050
▁승려	-6051
▁되는데	-6052
▁히트	-6053
▁갑자기	-6054
등을	-6055
▁빚	-6056
▁일련의	-6057
▁전쟁에	-6058
▁IC	-6059
▁선출되었다	-6060
▁도덕	-6061
▁검토	-6062
프라	-6063
▁크리	-6064
▁못하였다	-6065
▁초기에	-6066
▁한국어	-6067
="	-6068
son	-6069
▁SS	-6070
▁선임	-6071
비에	-6072
▁보건	-6073
아는	-6074
클리	-6075
▁책을	-6076
▁기록되어	-6077
▁없을	-6078
이닝	-6079
▁동안에	-6080
▁서술	-6081
대부	-6082
▁아테네	-6083
게는	-6084
▁전신	-6085
▁토론토	-6086
▁루트	-6087
▁언덕	-6088
실이	-6089
▁리처드	-6090
인에게	-6091
▁패션	-6092
▁특성	-6093
▁아름다운	-6094
지마	-6095
▁유효	-6096
▁맞서	-6097
▁의미하는	-6098
학자이다	-6099
거래	-6100
▁전쟁에서	-6101
▁상태에서	-6102
▁상관	-6103
▁필수	-6104
▁4,	-6105
린의	-6106
▁수의	-6107
▁42	-6108
▁회장	-6109
▁텍사스	-6110
▁암컷	-6111
보호	-6112
▁멸종	-6113
니즘	-6114
▁분자	-6115
▁순환	-6116
▁계속해서	-6117
식과	-6118
신문	-6119
▁크다	-6120
▁디스	-6121
▁만한	-6122
▁사마	-6123
▁암호	-6124
▁직원	-6125
▁추방	-6126
▁사람들	-6127
IS	-6128
▁물을	-6129
▁사전	-6130
▁주기	-6131
▁이온	-6132
아나	-6133
▁되돌	-6134
▁곳이다	-6135
▁에드워드	-6136
▁크레	-6137
▁1931	-6138
▁무한	-6139
베리아	-6140
▁핫	-6141
행성	-6142
▁전문가	-6143
▁당시에	-6144
▁란	-6145
친다	-6146
판은	-6147
(16	-6148
폴리스	-6149
▁출전하여	-6150
▁가수이다	-6151
▁화성	-6152
면에서	-6153
금이	-6154
▁여성의	-6155
단이다	-6156
▁구성된다	-6157
즈카	-6158
▁남아있	-6159
비로	-6160
▁고위	-6161
▁미국은	-6162
▁단층	-6163
▁민법	-6164
▁후인	-6165
우가	-6166
▁64	-6167
▁반응을	-6168
먼트	-6169
평을	-6170
▁1929	-6171
산군	-6172
어버	-6173
▁브레	-6174
▁개념을	-6175
▁공개되었다	-6176
▁완벽	-6177
사이다	-6178
AC	-6179
▁창작	-6180
▁출신이다	-6181
▁장소	-6182
비디오	-6183
▁돌려	-6184
▁넷	-6185
만한	-6186
▁선포	-6187
시장	-6188
▁앵	-6189
래곤	-6190
▁임의의	-6191
▁수십	-6192
▁알레	-6193
▁알고리즘	-6194
▁발레	-6195
▁별도의	-6196
▁달려	-6197
▁왕이	-6198
▁양쪽	-6199
▁밥	-6200
▁김종	-6201
▁엑스	-6202
▁(200	-6203
▁받아들이	-6204
▁나왔	-6205
▁차지하고	-6206
▁노선을	-6207
마를	-6208
▁민중	-6209
▁사람들에게	-6210
보이	-6211
▁오페라	-6212
▁이라크	-6213
▁들어갔다	-6214
▁지구의	-6215
▁대한민국에서	-6216
▁큐	-6217
주군	-6218
▁꾸준	-6219
▁확산	-6220
유가	-6221
제르	-6222
▁파크	-6223
▁권리를	-6224
▁글로벌	-6225
사전	-6226
▁속의	-6227
▁아오	-6228
▁단순한	-6229
▁권력	-6230
면은	-6231
▁개방	-6232
▁대량	-6233
가락	-6234
▁배포	-6235
▁이른바	-6236
펙트	-6237
ann	-6238
▁동북	-6239
▁취리히	-6240
이치	-6241
▁전쟁의	-6242
▁히틀러	-6243
▁1925	-6244
▁이르렀다	-6245
▁탐사	-6246
▁아래와	-6247
▁핑	-6248
▁앤드	-6249
▁수상하였다	-6250
▁고객	-6251
▁포항	-6252
렸으며	-6253
’(	-6254
계약	-6255
▁아래에	-6256
▁환승	-6257
▁비롯하여	-6258
했다가	-6259
▁농구	-6260
▁지니고	-6261
방향	-6262
느냐	-6263
마뱀	-6264
▁클라	-6265
OR	-6266
ee	-6267
▁교차	-6268
▁세웠	-6269
▁방법은	-6270
▁바르셀로나	-6271
▁덧붙	-6272
▁게임의	-6273
▁이루는	-6274
당시	-6275
▁만다	-6276
▁1923	-6277
▁Sp	-6278
▁발음	-6279
▁시가	-6280
▁위에서	-6281
사우루스	-6282
슬링	-6283
레나	-6284
▁갖는다	-6285
▁전송	-6286
되거나	-6287
▁단순히	-6288
▁사용자	-6289
▁짜	-6290
▁디스크	-6291
▁44	-6292
▁참여한	-6293
▁선호	-6294
▁아버지의	-6295
▁아티스트	-6296
▁입단하였다	-6297
속에	-6298
주의자	-6299
본부	-6300
문제	-6301
어에	-6302
▁병원	-6303
▁소식을	-6304
▁문제는	-6305
ex	-6306
sc	-6307
▁광복	-6308
▁없게	-6309
▁발생하였다	-6310
▁아틀	-6311
▁농촌	-6312
▁좋지	-6313
▁화려	-6314
즈를	-6315
▁1921	-6316
▁크로아티아	-6317
법인	-6318
▁왕의	-6319
▁지불	-6320
조차	-6321
▁최우수	-6322
하시	-6323
▁서쪽으로	-6324
▁동방	-6325
▁한자	-6326
부사	-6327
▁말이	-6328
▁자이언	-6329
▁뼈	-6330
렬한	-6331
olog	-6332
▁비트	-6333
▁충분히	-6334
등의	-6335
등이	-6336
▁서구	-6337
▁출연했다	-6338
카의	-6339
▁직전	-6340
▁바둑	-6341
▁가깝	-6342
▁자원	-6343
▁타이거	-6344
하기를	-6345
▁끝내	-6346
▁무대	-6347
▁차단	-6348
▁부문에	-6349
▁정교	-6350
▁윗	-6351
영을	-6352
▁내놓	-6353
▁유발	-6354
목을	-6355
노스	-6356
▁칠레	-6357
▁발언	-6358
▁상실	-6359
▁롱	-6360
▁사퇴	-6361
▁r	-6362
▁그들을	-6363
▁조건을	-6364
▁모터	-6365
▁팔레	-6366
▁대상이	-6367
▁쌀	-6368
▁달하는	-6369
▁히로시마	-6370
▁폐지되었다	-6371
중한	-6372
▁미쓰	-6373
활동을	-6374
▁특징을	-6375
▁북아메리카	-6376
▁분기	-6377
▁재학	-6378
▁형식으로	-6379
▁웹사이트	-6380
다란	-6381
신경	-6382
▁내세	-6383
▁카자	-6384
즈니	-6385
▁멈	-6386
▁싸움	-6387
연대	-6388
▁수소	-6389
열을	-6390
해에	-6391
ert	-6392
▁골드	-6393
▁일으켜	-6394
리티	-6395
공간	-6396
족은	-6397
▁영화의	-6398
▁구성하는	-6399
▁독립을	-6400
▁동쪽으로	-6401
▁뻗	-6402
면이	-6403
▁드래프트	-6404
률은	-6405
에서부터	-6406
남도의	-6407
▁경향이	-6408
▁최대의	-6409
▁했는데	-6410
▁성공했다	-6411
▁넣어	-6412
▁유학	-6413
▁화장	-6414
▁발간	-6415
▁철거	-6416
▁임무를	-6417
▁1922	-6418
▁몸을	-6419
▁사우스	-6420
▁입고	-6421
모가	-6422
아서	-6423
본을	-6424
▁하나가	-6425
과정	-6426
▁카라	-6427
▁조선총독	-6428
▁호수	-6429
양이	-6430
▁블록	-6431
▁지향	-6432
관이다	-6433
원군	-6434
▁체육	-6435
ohn	-6436
▁포트	-6437
분으로	-6438
▁영구	-6439
▁아동	-6440
▁뮌헨	-6441
》(19	-6442
▁(201	-6443
▁일은	-6444
▁메달	-6445
▁등장인	-6446
▁오카	-6447
▁모토	-6448
▁스프링	-6449
▁개인의	-6450
▁대부분을	-6451
교는	-6452
감이	-6453
▁상태를	-6454
우라	-6455
▁재생	-6456
▁기여했다	-6457
율이	-6458
ey	-6459
▁AP	-6460
▁배급	-6461
▁산화	-6462
▁코치	-6463
되게	-6464
▁폭탄	-6465
▁가까이	-6466
▁이다	-6467
▁넓이는	-6468
▁상호작용	-6469
▁명칭을	-6470
▁벨라	-6471
▁사건은	-6472
▁구멍	-6473
▁1,000	-6474
테이	-6475
ame	-6476
▁장르	-6477
▁장수	-6478
▁우리는	-6479
결승	-6480
▁이상을	-6481
▁주간	-6482
▁역임하였다	-6483
름이	-6484
ite	-6485
▁벡터	-6486
▁파키스탄	-6487
공을	-6488
▁모바일	-6489
▁성직	-6490
▁시작했고	-6491
▁삶을	-6492
▁재임	-6493
프가니스탄	-6494
비트	-6495
호에	-6496
프란	-6497
▁근로	-6498
키퍼	-6499
▁보편	-6500
바의	-6501
▁들면	-6502
▁호는	-6503
▁도쿠가와	-6504
▁인도의	-6505
▁돌파	-6506
▁미리	-6507
슬라	-6508
츠는	-6509
II	-6510
월의	-6511
프와	-6512
▁식품	-6513
▁기반을	-6514
▁수술	-6515
▁텐	-6516
포로	-6517
호와	-6518
▁거짓	-6519
론에	-6520
▁드물	-6521
▁이재	-6522
조건	-6523
▁북미	-6524
▁본다	-6525
▁순위	-6526
게이	-6527
▁손을	-6528
▁정부에	-6529
▁이벤	-6530
▁전투를	-6531
▁차트에서	-6532
▁랑	-6533
▁항의	-6534
▁원인이	-6535
▁본질	-6536
았으나	-6537
▁170	-6538
▁돌아온	-6539
>,	-6540
▁시정	-6541
▁일으켰다	-6542
인조	-6543
▁비스	-6544
▁왕조의	-6545
기구	-6546
슬로	-6547
▁46	-6548
▁곱	-6549
▁연료	-6550
▁흑인	-6551
발을	-6552
▁핸	-6553
마가	-6554
미술	-6555
▁기병	-6556
are	-6557
르키	-6558
▁추기	-6559
로써	-6560
▁결의	-6561
▁천안	-6562
▁사회의	-6563
▁드라마이다	-6564
▁사건으로	-6565
ound	-6566
▁방송된	-6567
우를	-6568
▁성경	-6569
형에	-6570
▁격파	-6571
▁배경으로	-6572
하를	-6573
전자	-6574
리코	-6575
▁가설	-6576
▁1926	-6577
▁클레	-6578
▁있으므로	-6579
▁일종의	-6580
같이	-6581
▁업무를	-6582
▁하기도	-6583
▁유배	-6584
▁집에	-6585
▁겉	-6586
ies	-6587
▁47	-6588
▁번호는	-6589
▁보여주는	-6590
%),	-6591
(3	-6592
▁닌텐	-6593
체이다	-6594
▁명으로	-6595
대신	-6596
▁보냈	-6597
▁오키	-6598
MS	-6599
ern	-6600
▁강릉	-6601
▁이외의	-6602
▁본격적으로	-6603
종합	-6604
▁자라	-6605
비히	-6606
▁모험	-6607
▁탄압	-6608
▁호흡	-6609
▁올스타	-6610
▁동양	-6611
▁속도	-6612
▁우수	-6613
▁웨일	-6614
ED	-6615
▁그럼	-6616
ma	-6617
▁입단했다	-6618
▁발표되었다	-6619
▁자가	-6620
▁포함되었다	-6621
▁도쿄도	-6622
▁신고	-6623
▁DVD	-6624
▁앞으로	-6625
▁걸친	-6626
▁그리하여	-6627
▁싱어	-6628
유를	-6629
59	-6630
란색	-6631
치기	-6632
▁세우	-6633
라에	-6634
왕을	-6635
▁1927	-6636
</	-6637
▁수컷	-6638
▁신화	-6639
▁잠재	-6640
였는데	-6641
다시	-6642
▁사가	-6643
▁용어는	-6644
▁스탈	-6645
ps	-6646
▁41	-6647
▁가난	-6648
▁대표로	-6649
▁콘텐츠	-6650
▁마틴	-6651
▁성남	-6652
민의	-6653
▁그녀가	-6654
▁공장	-6655
▁재능	-6656
53	-6657
old	-6658
(17	-6659
하여야	-6660
실로	-6661
재가	-6662
▁하인	-6663
지면	-6664
▁마드리드	-6665
▁원인	-6666
▁기본적으로	-6667
너스	-6668
▁마음을	-6669
▁De	-6670
▁지중	-6671
▁스타디움	-6672
▁밝은	-6673
▁칼리	-6674
▁골키퍼	-6675
▁영화배우이다	-6676
▁서서	-6677
▁비판을	-6678
▁County	-6679
ᄒᆞ	-6680
중인	-6681
▁발생한다	-6682
▁옵	-6683
▁퀘	-6684
▁43	-6685
하기에	-6686
▁가속	-6687
▁마주	-6688
▁유통	-6689
▁동성애	-6690
▁처음에	-6691
티스	-6692
▁알리	-6693
▁랩	-6694
▁줄어들	-6695
▁나라의	-6696
Hz	-6697
▁대다	-6698
▁세부	-6699
▁십자	-6700
▁보이지	-6701
▁덩	-6702
크와	-6703
▁교류	-6704
▁마감	-6705
ung	-6706
▁짝	-6707
제도	-6708
▁탓	-6709
▁판타	-6710
56	-6711
▁입장	-6712
▁안토니	-6713
ula	-6714
▁음반을	-6715
다리	-6716
기지	-6717
힌다	-6718
▁노동자	-6719
▁1912	-6720
트랙	-6721
▁한일	-6722
▁틈	-6723
학은	-6724
▁이명	-6725
기인	-6726
▁되기	-6727
▁일상	-6728
▁정치인	-6729
54	-6730
▁바이러스	-6731
▁방언	-6732
크래프트	-6733
▁개척	-6734
▁이용할	-6735
▁콜롬	-6736
▁보험	-6737
미아	-6738
▁수준의	-6739
▁He	-6740
58	-6741
▁젠	-6742
▁갈색	-6743
▁제네	-6744
▁검색	-6745
스팅	-6746
해군	-6747
▁주장하는	-6748
▁매장	-6749
로서는	-6750
용을	-6751
▁서기	-6752
크스	-6753
▁열었다	-6754
그래	-6755
▁촉진	-6756
▁크루	-6757
▁주재	-6758
▁입법	-6759
▁인천광역시	-6760
▁힙합	-6761
▁대법	-6762
▁낸	-6763
베리	-6764
서와	-6765
▁지칭	-6766
환을	-6767
▁개명	-6768
식이다	-6769
▁1917	-6770
▁단어	-6771
▁다큐	-6772
▁하여금	-6773
▁이어졌다	-6774
▁초청	-6775
파와	-6776
단에서	-6777
▁싱가포르	-6778
▁소집	-6779
▁인터뷰에서	-6780
▁고급	-6781
▁향토	-6782
▁이외에도	-6783
로에	-6784
왕후	-6785
▁아프가니스탄	-6786
▁전화	-6787
▁중추	-6788
▁비공	-6789
▁루마니아	-6790
VP	-6791
럼비아	-6792
되었기	-6793
체인	-6794
▁개국	-6795
ical	-6796
▁EP	-6797
▁En	-6798
▁리그의	-6799
▁고종	-6800
▁사건의	-6801
▁사항	-6802
▁입은	-6803
▁주된	-6804
▁시모	-6805
▁자매	-6806
▁치렀다	-6807
▁가상	-6808
▁웃	-6809
▁생태	-6810
산과	-6811
치오	-6812
▁메탈	-6813
▁유튜브	-6814
슨이	-6815
드리아	-6816
-10	-6817
▁사랑을	-6818
▁쾌	-6819
공신	-6820
▁멀티	-6821
▁교회의	-6822
▁꼬리	-6823
nivers	-6824
▁강요	-6825
▁살아남	-6826
▁제도를	-6827
▁유전자	-6828
les	-6829
▁CP	-6830
▁오케	-6831
가능	-6832
▁유대인	-6833
▁작품의	-6834
▁전동차	-6835
환경	-6836
▁홋카이도	-6837
▁인상	-6838
▁소프트웨	-6839
씨를	-6840
▁소화	-6841
▁1907	-6842
▁아버지가	-6843
▁원시	-6844
▁주에	-6845
▁대대	-6846
▁후보가	-6847
,0	-6848
▁입력	-6849
ork	-6850
▁명시	-6851
▁약칭	-6852
▁위치에	-6853
브로	-6854
▁영토를	-6855
▁레이블	-6856
▁파트너	-6857
인가	-6858
▁위대한	-6859
무네	-6860
▁집필	-6861
학교를	-6862
▁데이터를	-6863
▁도움이	-6864
▁Re	-6865
▁경기가	-6866
▁적극적으로	-6867
▁참고	-6868
로미터	-6869
율은	-6870
▁공주	-6871
▁권리	-6872
▁진학	-6873
▁발매한	-6874
▁영화를	-6875
▁유적	-6876
▁소규모	-6877
▁함경	-6878
▁심지어	-6879
▁말로	-6880
▁탄핵	-6881
▁화가	-6882
자이자	-6883
▁이익	-6884
▁미국으로	-6885
▁자금	-6886
▁오리지	-6887
▁쓰러	-6888
▁예방	-6889
▁서명	-6890
▁수를	-6891
▁운송	-6892
▁질량	-6893
▁140	-6894
물과	-6895
▁뚜렷	-6896
▁부르고	-6897
▁위상	-6898
▁자랑	-6899
▁일원	-6900
클레	-6901
57	-6902
▁올해의	-6903
▁1.	-6904
▁지리	-6905
사이드	-6906
▁우리가	-6907
▁주변의	-6908
일리	-6909
▁오다	-6910
시스트	-6911
▁열리는	-6912
SP	-6913
▁전작	-6914
co	-6915
▁편의	-6916
목에	-6917
▁on	-6918
▁부드	-6919
▁안동	-6920
▁토착	-6921
lu	-6922
▁않았지만	-6923
▁끝으로	-6924
러는	-6925
토는	-6926
und	-6927
▁건물은	-6928
▁소득	-6929
차의	-6930
▁상대식	-6931
▁이어서	-6932
▁첫째	-6933
▁600	-6934
▁혼자	-6935
▁변호사	-6936
▁프로그래밍	-6937
▁갖게	-6938
와이	-6939
▁체제	-6940
▁영향으로	-6941
▁뛰고	-6942
▁인기가	-6943
▁HD	-6944
▁담고	-6945
라이터	-6946
▁맺었다	-6947
▁대학교의	-6948
TA	-6949
▁오는	-6950
▁미국인	-6951
브레	-6952
▁대화	-6953
▁강하게	-6954
▁불가리아	-6955
▁보스턴	-6956
스테이션	-6957
침을	-6958
▁공기	-6959
하라는	-6960
스피	-6961
▁원래는	-6962
’,	-6963
등급	-6964
▁공산당	-6965
▁발표된	-6966
▁특별히	-6967
ox	-6968
▁주니어	-6969
지구	-6970
▁그라	-6971
층에	-6972
▁현존	-6973
▁펑	-6974
▁이즈	-6975
▁착용	-6976
▁실천	-6977
▁주력	-6978
니스트	-6979
▁아메리칸	-6980
WE	-6981
Th	-6982
릭스	-6983
▁메모리	-6984
▁동반	-6985
미사	-6986
▁최근에는	-6987
학에	-6988
▁로렌	-6989
▁매주	-6990
▁초기에는	-6991
▁중학교이다	-6992
▁물려	-6993
▁대학의	-6994
▁부동	-6995
land	-6996
▁역사가	-6997
▁적응	-6998
▁정식으로	-6999
OM	-7000
▁목숨	-7001
타가	-7002
ick	-7003
▁베어	-7004
▁투어	-7005
▁닉	-7006
▁감시	-7007
▁죽음을	-7008
▁사도	-7009
▁면역	-7010
보다도	-7011
_4	-7012
토미	-7013
▁리드	-7014
▁세리에	-7015
라면	-7016
로지	-7017
ile	-7018
▁미나	-7019
▁약탈	-7020
았지만	-7021
▁사건에	-7022
▁용인	-7023
▁호주	-7024
▁엘리자	-7025
Al	-7026
각형	-7027
▁압도	-7028
식에서	-7029
▁소리	-7030
▁영역	-7031
▁타격	-7032
국과	-7033
▁할아버	-7034
▁요코하마	-7035
▁US	-7036
특별자치	-7037
▁산하	-7038
▁신도	-7039
▁구성원	-7040
▁폭력	-7041
▁중성	-7042
지방선거	-7043
▁1908	-7044
계와	-7045
조참	-7046
지니아	-7047
▁남녀	-7048
시스템	-7049
▁놓여	-7050
▁유력	-7051
▁개량	-7052
▁감독은	-7053
▁오이	-7054
▁만들기	-7055
필드	-7056
(18	-7057
inc	-7058
▁포함된	-7059
년까지는	-7060
나르	-7061
ous	-7062
▁태양의	-7063
절을	-7064
치와	-7065
▁소속의	-7066
리브	-7067
부장	-7068
yst	-7069
▁거느	-7070
▁축소	-7071
odice	-7072
▁정확히	-7073
▁집을	-7074
하르트	-7075
통합	-7076
▁번주	-7077
▁실업	-7078
▁이론을	-7079
▁올라가	-7080
판에	-7081
▁몸길	-7082
군에게	-7083
령의	-7084
▁반대하는	-7085
▁안내	-7086
等學校	-7087
▁적어도	-7088
중을	-7089
▁소요	-7090
▁가치를	-7091
▁공원	-7092
▁복음	-7093
훈련	-7094
우스는	-7095
▁그러므로	-7096
▁백성	-7097
사기	-7098
▁기도	-7099
▁소스	-7100
▁진격	-7101
▁싸우	-7102
▁이적하였다	-7103
모의	-7104
▁상황에	-7105
예를	-7106
ala	-7107
대상	-7108
▁1905	-7109
▁막기	-7110
▁유나이티드	-7111
▁섹	-7112
▁후퇴	-7113
▁관계에	-7114
▁나뉘어	-7115
▁후에도	-7116
▁세계대전	-7117
▁주제	-7118
▁스톤	-7119
▁훌륭	-7120
바키아	-7121
▁Sch	-7122
▁많았다	-7123
안전	-7124
▁군대	-7125
수도	-7126
▁어두	-7127
디는	-7128
ase	-7129
▁아르메	-7130
az	-7131
▁관객	-7132
▁않기	-7133
▁크라	-7134
▁행복	-7135
베이스	-7136
▁y	-7137
연구소	-7138
▁며	-7139
카르	-7140
▁트라	-7141
토벤	-7142
아웃	-7143
▁감정	-7144
구조	-7145
드르	-7146
았는데	-7147
▁론	-7148
▁대변	-7149
▁보물	-7150
용의	-7151
▁대동	-7152
▁관계는	-7153
▁사막	-7154
▁오리지널	-7155
배를	-7156
▁맺고	-7157
▁발렌	-7158
▁개장	-7159
▁우에	-7160
목으로	-7161
▁벼슬	-7162
▁붙어	-7163
▁Sc	-7164
▁그만	-7165
ool	-7166
▁도시는	-7167
▁의도	-7168
▁살았다	-7169
▁아이스	-7170
▁원하는	-7171
▁준결승	-7172
결을	-7173
후에	-7174
▁다이묘	-7175
▁유용	-7176
▁청주	-7177
한다면	-7178
니와	-7179
▁평론	-7180
실에서	-7181
ance	-7182
▁밴드의	-7183
▁밀라노	-7184
집을	-7185
▁또다른	-7186
▁한성	-7187
▁전형적인	-7188
고리	-7189
마에	-7190
심이	-7191
현은	-7192
▁맨체스터	-7193
▁풋	-7194
렀고	-7195
▁가고	-7196
▁부르기도	-7197
국인	-7198
▁상태가	-7199
▁말라	-7200
▁정통	-7201
▁패턴	-7202
▁콘서트	-7203
▁≪	-7204
밀한	-7205
이면	-7206
보험	-7207
편의	-7208
▁연구는	-7209
▁영향력을	-7210
코프	-7211
int	-7212
▁개찰	-7213
▁일단	-7214
▁파생	-7215
군에서	-7216
작으로	-7217
슬라비아	-7218
▁필립	-7219
▁딜	-7220
유한	-7221
카는	-7222
▁허락	-7223
금은	-7224
행이	-7225
▁심장	-7226
▁결승전	-7227
▁방송을	-7228
▁부담	-7229
▁필라	-7230
▁베른	-7231
▁없지만	-7232
▁콘스탄티노	-7233
▁주거	-7234
당으로	-7235
51	-7236
카미	-7237
폴리	-7238
▁시게	-7239
머리	-7240
▁청구	-7241
▁전국동시	-7242
▁새끼	-7243
▁1906	-7244
▁리그에서	-7245
올린	-7246
▁고고	-7247
▁연안	-7248
▁전체를	-7249
름은	-7250
▁차지한다	-7251
▁참가하여	-7252
▁과도	-7253
▁데려	-7254
▁수호	-7255
▁꺼	-7256
▁집안	-7257
▁사찰	-7258
▁전국동시지방선거	-7259
▁발휘	-7260
▁역에서	-7261
장군	-7262
▁게르	-7263
▁부속	-7264
▁그럼에도	-7265
▁그렇다면	-7266
▁미나미	-7267
▁다음으로	-7268
▁보르	-7269
▁상주	-7270
▁종이	-7271
▁가끔	-7272
▁뜻이다	-7273
,7	-7274
▁관해	-7275
▁열매	-7276
향을	-7277
▁재즈	-7278
▁고안	-7279
▁유키	-7280
▁이끌어	-7281
▁맞추	-7282
하에서	-7283
▁800	-7284
▁강남	-7285
건의	-7286
▁교사	-7287
▁다큐멘	-7288
▁이은	-7289
▁홈런을	-7290
적이며	-7291
▁회사의	-7292
플로	-7293
500	-7294
▁문신	-7295
▁실내	-7296
▁닮	-7297
▁새벽	-7298
▁증언	-7299
화하는	-7300
ron	-7301
▁영양	-7302
▁하던	-7303
▁지역이	-7304
▁황제의	-7305
▁이수	-7306
까지도	-7307
▁그리스의	-7308
▁조선민주주의인민공화국의	-7309
갔고	-7310
▁재료	-7311
노미야	-7312
▁클리	-7313
▁센트	-7314
▁말해	-7315
▁이념	-7316
차에	-7317
▁곤충	-7318
▁기하	-7319
▁수직	-7320
▁하나님	-7321
됐고	-7322
세기의	-7323
▁사이트	-7324
▁남극	-7325
▁허가	-7326
▁수도권	-7327
▁든	-7328
▁삽입	-7329
▁시절에	-7330
▁위키	-7331
버드	-7332
▁대칭	-7333
모델	-7334
▁다루는	-7335
주의와	-7336
▁49	-7337
카드	-7338
▁코믹	-7339
교도	-7340
▁땅을	-7341
▁법적	-7342
래의	-7343
받침	-7344
▁혼인	-7345
▁재위	-7346
▁좁은	-7347
대문	-7348
비행	-7349
▁행위를	-7350
▁형성된	-7351
▁손에	-7352
▁예외	-7353
▁비틀	-7354
▁접속	-7355
▁미국에	-7356
▁남겨	-7357
▁비평가	-7358
▁나타난	-7359
▁야스	-7360
보로	-7361
▁감각	-7362
▁무릎	-7363
▁130	-7364
▁일으킨	-7365
모는	-7366
▁나열	-7367
▁발전을	-7368
▁의견을	-7369
너는	-7370
▁스웨덴의	-7371
▁서방	-7372
▁마그	-7373
▁음반의	-7374
▁베네치아	-7375
▁일본은	-7376
▁조선시대의	-7377
살이	-7378
가수	-7379
말로	-7380
▁신의	-7381
▁셔	-7382
하면서도	-7383
▁주목을	-7384
IT	-7385
▁아리	-7386
학회	-7387
▁구로	-7388
▁없었고	-7389
▁부탁	-7390
▁스크린	-7391
▁웨이	-7392
▁지었다	-7393
▁극복	-7394
▁소형	-7395
▁총선	-7396
관계를	-7397
▁모습이	-7398
▁그들	-7399
▁지자	-7400
▁영혼	-7401
▁적도	-7402
▁자체가	-7403
▁아케	-7404
▁이미지	-7405
▁내가	-7406
▁커다란	-7407
▁노선은	-7408
▁그녀를	-7409
▁매니	-7410
▁석사	-7411
OC	-7412
나마	-7413
점과	-7414
▁승부	-7415
우스의	-7416
▁성과를	-7417
中學校	-7418
▁에너지를	-7419
주년	-7420
▁타워	-7421
▁Con	-7422
▁늑	-7423
▁가미	-7424
▁생애	-7425
▁지질	-7426
▁군사를	-7427
▁설립한	-7428
경기에서	-7429
청년	-7430
▁기구	-7431
▁Love	-7432
▁나이에	-7433
▁레코드	-7434
▁상태에	-7435
청은	-7436
▁전술	-7437
▁중국에서	-7438
▁바이러	-7439
▁지나지	-7440
▁본선에	-7441
▁논리	-7442
운동을	-7443
류에	-7444
곡은	-7445
▁트럼	-7446
ier	-7447
▁정수	-7448
▁정이다	-7449
비와	-7450
보통	-7451
▁감옥	-7452
▁특허	-7453
▁도메	-7454
레이드	-7455
▁싫	-7456
투표	-7457
▁탑승	-7458
▁국경을	-7459
▁갱	-7460
▁동굴	-7461
▁th	-7462
기이다	-7463
쳤고	-7464
▁MS	-7465
▁본토	-7466
▁지바	-7467
▁강수	-7468
중의	-7469
▁유입	-7470
률이	-7471
▁기부	-7472
▁명칭으로	-7473
▁모음	-7474
▁맞춰	-7475
▁마법	-7476
▁이르기까지	-7477
att	-7478
▁모임	-7479
▁잡고	-7480
당하고	-7481
호선의	-7482
▁클라우	-7483
애나	-7484
이게	-7485
▁la	-7486
니에	-7487
▁국가가	-7488
마쓰	-7489
▁삼았다	-7490
▁플로리다	-7491
오로	-7492
▁클로	-7493
▁기능이	-7494
▁지원하는	-7495
▁SF	-7496
▁메트로	-7497
▁스릴	-7498
▁플루	-7499
자였다	-7500
▁동일본	-7501
ET	-7502
되던	-7503
프스	-7504
▁파티	-7505
병원	-7506
▁KT	-7507
▁콜로	-7508
▁해협	-7509
▁나고야	-7510
연의	-7511
▁탄소	-7512
▁51	-7513
▁담은	-7514
▁연평균	-7515
졌던	-7516
▁수백	-7517
)>	-7518
▁콜롬비아	-7519
▁참가하였다	-7520
유로	-7521
▁오늘날의	-7522
▁쏘	-7523
▁때마다	-7524
▁결정했다	-7525
▁재산	-7526
▁거리를	-7527
▁세계를	-7528
오고	-7529
▁구원	-7530
▁있어야	-7531
▁54	-7532
이라며	-7533
▁크기가	-7534
바흐	-7535
호쿠	-7536
▁레인	-7537
▁받으며	-7538
▁들었다	-7539
▁앱	-7540
▁마스터	-7541
▁다녔	-7542
▁레벨	-7543
▁비정	-7544
바다	-7545
▁하우스	-7546
대사	-7547
▁음악가	-7548
▁유고슬라비아	-7549
3)	-7550
권과	-7551
▁지역에서는	-7552
▁음성	-7553
다이라	-7554
▁양산	-7555
▁발생했다	-7556
▁남아메리카	-7557
되었다는	-7558
▁결과로	-7559
▁시조	-7560
▁쇠퇴	-7561
▁커뮤니티	-7562
졌으나	-7563
▁의정부	-7564
본은	-7565
▁사이를	-7566
iki	-7567
▁중에서도	-7568
▁끈	-7569
족을	-7570
▁토너	-7571
중이다	-7572
▁본명은	-7573
▁x	-7574
노의	-7575
판의	-7576
작가	-7577
▁몸무	-7578
▁철저	-7579
▁110	-7580
▁보이고	-7581
▁성격을	-7582
▁르네	-7583
▁발명	-7584
▁일곱	-7585
레는	-7586
▁규슈	-7587
▁동시	-7588
▁트위	-7589
▁싱어송	-7590
▁돌아왔다	-7591
▁영감을	-7592
▁적절한	-7593
률을	-7594
주의는	-7595
▁수반	-7596
데이트	-7597
속의	-7598
▁해설	-7599
▁부상으로	-7600
발전	-7601
▁그랑	-7602
소수	-7603
오리	-7604
▁거리에	-7605
프란시스코	-7606
센트	-7607
▁블라디	-7608
▁이정	-7609
▁중립	-7610
▁사람이다	-7611
▁그려져	-7612
▁HIV	-7613
▁당나라	-7614
▁독점	-7615
▁석방	-7616
▁제후	-7617
령으로	-7618
▁파울	-7619
재위	-7620
▁힘들	-7621
▁현상을	-7622
ign	-7623
▁권한을	-7624
▁스트라이	-7625
52	-7626
TC	-7627
▁포켓몬	-7628
▁코스	-7629
▁선형	-7630
면으로	-7631
▁주변에	-7632
문이다	-7633
▁페이스	-7634
이즈	-7635
AP	-7636
나를	-7637
▁백제	-7638
▁비롯해	-7639
당에서	-7640
성에서	-7641
체에서	-7642
▁교수로	-7643
▁1/	-7644
▁코너	-7645
▁거대	-7646
▁선조	-7647
▁와서	-7648
석으로	-7649
함은	-7650
▁52	-7651
▁무관	-7652
▁망원	-7653
▁크로스	-7654
(6	-7655
나게	-7656
▁곳은	-7657
▁기타리스트	-7658
▁세력이	-7659
타임	-7660
트롤	-7661
▁덕분에	-7662
▁되기도	-7663
디스	-7664
▁거둔	-7665
▁경남	-7666
▁codice	-7667
타와	-7668
시즌을	-7669
▁급격	-7670
▁영원	-7671
hy	-7672
▁순서	-7673
이라면	-7674
▁공간을	-7675
▁북극	-7676
▁단행	-7677
▁AC	-7678
▁고리	-7679
▁인물로	-7680
▁서쪽으로는	-7681
▁빨간	-7682
▁Mar	-7683
▁1904	-7684
▁유럽에서	-7685
반의	-7686
졌지만	-7687
▁되찾	-7688
▁도시를	-7689
▁탐험	-7690
보기	-7691
훼손	-7692
ram	-7693
▁삭제	-7694
▁추적	-7695
▁운동에	-7696
▁익스	-7697
페이스	-7698
마저	-7699
▁흰색	-7700
▁5,	-7701
▁배열	-7702
▁베토벤	-7703
▁앨범을	-7704
현재의	-7705
▁결승전에서	-7706
▁남쪽으로는	-7707
▁OS	-7708
개국	-7709
▁("	-7710
▁풍부한	-7711
▁변화가	-7712
▁주식회사	-7713
개는	-7714
우에	-7715
의가	-7716
▁넘겨	-7717
도니아	-7718
▁Man	-7719
▁김대중	-7720
▁의미가	-7721
▁빅토리아	-7722
문과	-7723
▁실제로는	-7724
▁졸업했다	-7725
▁수감	-7726
▁모로	-7727
▁압축	-7728
▁효과가	-7729
▁책은	-7730
년만에	-7731
▁보이며	-7732
▁뱀	-7733
▁장례	-7734
▁공무원	-7735
계열	-7736
▁전북	-7737
▁차지하는	-7738
▁상하	-7739
▁특성을	-7740
▁대해서도	-7741
미국	-7742
토가	-7743
▁광역	-7744
마루	-7745
▁먹는다	-7746
▁기본적인	-7747
ina	-7748
즈키	-7749
▁입증	-7750
▁화폐	-7751
▁초래	-7752
▁밀접	-7753
▁감사	-7754
▁운반	-7755
▁입사	-7756
자들과	-7757
▁꾸준히	-7758
▁게시	-7759
▁중시	-7760
클린	-7761
▁이하의	-7762
▁싱어송라이터	-7763
▁스릴러	-7764
▁비례대표	-7765
▁이날	-7766
자였던	-7767
▁마치고	-7768
▁동쪽으로는	-7769
▁레지	-7770
오와	-7771
▁예산	-7772
▁패러	-7773
▁납치	-7774
▁뮤직비디오	-7775
▁했	-7776
생산	-7777
슬림	-7778
▁당사	-7779
▁두드	-7780
▁역의	-7781
▁차지하였다	-7782
▁이행	-7783
▁상황이	-7784
▁사용하지	-7785
▁마카	-7786
▁세워진	-7787
청의	-7788
▁람	-7789
▁되었는데	-7790
▁아래의	-7791
▁포유	-7792
인인	-7793
▁사촌	-7794
▁순수	-7795
▁방위	-7796
▁플레	-7797
돌프	-7798
▁히가시	-7799
즈와	-7800
에게도	-7801
▁반면에	-7802
▁무산	-7803
▁지대	-7804
▁스마트폰	-7805
▁라이프	-7806
▁아울	-7807
▁고통	-7808
▁영국과	-7809
▁이었다	-7810
▁국정	-7811
상이다	-7812
▁트라이	-7813
▁쿼	-7814
▁정부를	-7815
▁뤼	-7816
▁56	-7817
치며	-7818
▁없었던	-7819
▁종교적	-7820
▁죽자	-7821
▁브레이	-7822
-15	-7823
▁놀라	-7824
▁퓨	-7825
▁찬성	-7826
▁천황의	-7827
▁휴대	-7828
▁툴	-7829
▁경유	-7830
▁등장한	-7831
▁토벌	-7832
▁현대의	-7833
란다	-7834
졌는데	-7835
리케이션	-7836
▁왕립	-7837
▁커피	-7838
▁않았으며	-7839
▁가쓰	-7840
▁수록되어	-7841
마리	-7842
▁케이블	-7843
▁하사	-7844
자이너	-7845
▁입었다	-7846
▁자신은	-7847
▁추락	-7848
▁게임은	-7849
▁돔	-7850
고에	-7851
▁BBC	-7852
▁진출에	-7853
▁엔터테인먼트	-7854
▁계층	-7855
▁수밖에	-7856
▁가능성을	-7857
노는	-7858
▁크림	-7859
였다고	-7860
▁생기	-7861
▁주요한	-7862
▁정도이다	-7863
▁독재	-7864
▁서북	-7865
▁명성을	-7866
▁필요로	-7867
루살	-7868
실에	-7869
오가	-7870
▁고가	-7871
▁아무런	-7872
▁동아시아	-7873
법과	-7874
▁가시	-7875
▁리듬	-7876
근혜	-7877
▁도중에	-7878
▁크기의	-7879
투아니아	-7880
▁를	-7881
집합	-7882
▁내는	-7883
▁매각	-7884
▁사다	-7885
▁지연	-7886
▁옮겼다	-7887
▁폭격	-7888
▁불리며	-7889
▁셋째	-7890
▁앨런	-7891
▁인류	-7892
▁학사	-7893
▁약간의	-7894
▁카자흐	-7895
▁뚫	-7896
▁구사	-7897
▁은퇴한	-7898
▁모양으로	-7899
▁창간	-7900
원숭	-7901
▁공정	-7902
▁알렉산더	-7903
졌을	-7904
▁JR	-7905
▁대원	-7906
▁사로	-7907
▁제공하고	-7908
카스	-7909
ish	-7910
▁먹는	-7911
▁모듈	-7912
▁소리를	-7913
▁브로	-7914
▁상영	-7915
▁때문이었다	-7916
펙트럼	-7917
이었는데	-7918
▁안드로이드	-7919
▁샌프란시스코	-7920
▁빗	-7921
▁임신	-7922
▁문화적	-7923
▁1911	-7924
▁들여	-7925
▁쿠바	-7926
▁개발을	-7927
▁|	-7928
기능	-7929
▁집에서	-7930
▁보여주었다	-7931
lo	-7932
내의	-7933
야는	-7934
▁카메라	-7935
▁판타지	-7936
끼리	-7937
▁겨우	-7938
▁인증	-7939
▁노선이	-7940
작은	-7941
해지고	-7942
▁길이가	-7943
▁크기는	-7944
▁2023	-7945
리온	-7946
▁동영	-7947
▁한반도	-7948
▁북쪽으로는	-7949
▁그중	-7950
▁이어져	-7951
▁등도	-7952
▁초상	-7953
▁대서양	-7954
▁결심	-7955
▁정류	-7956
▁최상	-7957
▁테오	-7958
▁대학에서	-7959
▁긴급	-7960
루살렘	-7961
▁첩	-7962
▁경전	-7963
▁지표	-7964
▁Col	-7965
나고	-7966
▁혁신	-7967
▁락	-7968
▁우라	-7969
▁굽	-7970
▁?)	-7971
▁세월	-7972
▁일대	-7973
▁캡	-7974
▁무리	-7975
페이지	-7976
▁전해진다	-7977
러리	-7978
▁대조	-7979
▁전망	-7980
▁곧바로	-7981
ai	-7982
총리	-7983
▁못하게	-7984
300	-7985
▁걷	-7986
tor	-7987
▁예로	-7988
▁이종	-7989
▁자세	-7990
▁바람에	-7991
▁졸업한	-7992
탄을	-7993
ree	-7994
▁대의	-7995
▁성과	-7996
▁과학자	-7997
▁관련하여	-7998
ress	-7999
▁아우구	-8000
천의	-8001
터와	-8002
che	-8003
▁설치되었다	-8004
▁띤	-8005
▁리눅	-8006
▁SC	-8007
▁출현	-8008
▁생각을	-8009
▁수익	-8010
(4	-8011
사상	-8012
▁플레이스테이션	-8013
주의에	-8014
▁부처	-8015
▁산악	-8016
▁심사	-8017
▁유아	-8018
▁시간에	-8019
▁일환으로	-8020
ES	-8021
▁걸려	-8022
▁대선	-8023
▁방향을	-8024
▁병력을	-8025
▁압박	-8026
▁사람으로	-8027
▁이치	-8028
메르	-8029
▁FM	-8030
▁공룡	-8031
▁이용하는	-8032
▁칙	-8033
▁퀴	-8034
▁거친	-8035
▁연설	-8036
▁타입	-8037
▁열차는	-8038
▁프랑스는	-8039
스톤	-8040
▁방법이	-8041
보의	-8042
▁1896	-8043
령은	-8044
성도	-8045
자나	-8046
정도	-8047
▁운항	-8048
▁업데이트	-8049
▁일어난다	-8050
▁지원한다	-8051
제품	-8052
병으로	-8053
▁에스토	-8054
▁밸	-8055
res	-8056
▁관심이	-8057
AD	-8058
▁모노	-8059
▁하느	-8060
때로	-8061
테스	-8062
to	-8063
건설	-8064
▁일본인	-8065
▁동경	-8066
▁연락	-8067
직에서	-8068
▁공식적인	-8069
▁분포한다	-8070
▁일원으로	-8071
▁추산으로	-8072
▁딱	-8073
기서	-8074
▁소위	-8075
▁노래이다	-8076
스티벌	-8077
▁들어간	-8078
CD	-8079
공학	-8080
류로	-8081
▁않았던	-8082
▁역사는	-8083
.'	-8084
닉스	-8085
▁외계	-8086
▁딴	-8087
▁믹	-8088
▁합동	-8089
▁브라질의	-8090
▁중지	-8091
▁홀로	-8092
▁부분에	-8093
▁초점을	-8094
르바	-8095
족과	-8096
▁구마	-8097
▁리가	-8098
▁밖으로	-8099
Ar	-8100
클라	-8101
▁Le	-8102
▁안양	-8103
▁외무	-8104
▁질환	-8105
yn	-8106
문으로	-8107
▁고립	-8108
▁시스템은	-8109
▁목포	-8110
▁규모가	-8111
▁대회를	-8112
▁드래곤	-8113
▁오염	-8114
▁결과는	-8115
▁모델로	-8116
고자	-8117
관광	-8118
▁이세	-8119
▁것이고	-8120
▁정권을	-8121
▁모래	-8122
▁습격	-8123
단계	-8124
플러	-8125
▁신분	-8126
된다는	-8127
▁작전을	-8128
▁유니버	-8129
▁무슬림	-8130
▁세우고	-8131
▁출전했다	-8132
▁살펴	-8133
▁옹호	-8134
▁조기	-8135
▁친선	-8136
▁제조업	-8137
▁추가되었다	-8138
▁시달	-8139
▁재발	-8140
▁있다가	-8141
병대	-8142
▁붙잡	-8143
▁중동	-8144
▁작품이	-8145
ke	-8146
든지	-8147
유산	-8148
▁뒤로	-8149
▁스토리	-8150
▁못했고	-8151
▁의미로	-8152
긴다	-8153
실한	-8154
▁청동	-8155
▁세계에	-8156
북도의	-8157
중이	-8158
▁그랜드	-8159
들인	-8160
▁성질	-8161
▁세균	-8162
▁얻게	-8163
널드	-8164
▁아웃	-8165
illi	-8166
▁사진을	-8167
▁토마스	-8168
하겠다고	-8169
션을	-8170
▁거슬러	-8171
▁넥	-8172
둥이	-8173
▁관하여	-8174
▁낳았다	-8175
▁WWE	-8176
전투	-8177
▁에스파	-8178
▁프랑스에서	-8179
▁못한다	-8180
▁대회이다	-8181
보가	-8182
해는	-8183
▁벗어	-8184
▁창당	-8185
▁나이트	-8186
삼국	-8187
.5%	-8188
▁눈을	-8189
▁아르메니아	-8190
Mar	-8191
▁모르	-8192
▁대회는	-8193
▁World	-8194
▁성공적으로	-8195
ome	-8196
▁만난	-8197
ose	-8198
▁빌딩	-8199
▁실수	-8200
▁물이	-8201
▁섬식	-8202
AS	-8203
▁예전	-8204
▁유닛	-8205
▁곳을	-8206
▁회색	-8207
▁사제	-8208
▁전의	-8209
ML	-8210
▁노무	-8211
▁1909	-8212
복지	-8213
소리	-8214
▁캘리포니아주	-8215
▁상의	-8216
▁미치는	-8217
▁중심기압	-8218
중심	-8219
▁대구광역시	-8220
▁SN	-8221
▁냈다	-8222
▁테크	-8223
▁깊이	-8224
▁장갑	-8225
다니	-8226
▁색깔	-8227
▁스펙트럼	-8228
론적	-8229
우치	-8230
타나	-8231
화학	-8232
▁손상	-8233
스포츠	-8234
루미	-8235
린이	-8236
▁모습으로	-8237
▁이루어진다	-8238
rou	-8239
▁일부로	-8240
▁경험을	-8241
▁엔진을	-8242
▁추대	-8243
▁흐르는	-8244
앨범	-8245
ium	-8246
▁기용	-8247
▁삼아	-8248
▁참모	-8249
▁데뷔전을	-8250
황후	-8251
▁(18	-8252
▁고시	-8253
▁단선	-8254
▁전염	-8255
▁광범위한	-8256
박스	-8257
▁올린	-8258
▁과거에	-8259
▁클래식	-8260
아프리카	-8261
iel	-8262
ix	-8263
▁타카	-8264
생활을	-8265
▁극단	-8266
▁영주	-8267
▁박물관	-8268
맨스	-8269
범죄	-8270
▁예능	-8271
위에서	-8272
연한	-8273
▁대만	-8274
▁별로	-8275
▁테마	-8276
됐으며	-8277
▁오디션	-8278
▁갤럭	-8279
▁김해	-8280
▁요미	-8281
▁간섭	-8282
▁사과	-8283
▁황태	-8284
양군	-8285
▁입대	-8286
▁문화를	-8287
▁뷰	-8288
ale	-8289
▁가득	-8290
▁유인	-8291
▁향년	-8292
▁빵	-8293
등한	-8294
치현	-8295
_10	-8296
▁되었다고	-8297
▁아들이다	-8298
파에	-8299
ica	-8300
▁복수	-8301
▁간에	-8302
▁원로	-8303
▁영광	-8304
▁우루	-8305
▁발매했다	-8306
▁고양이	-8307
▁두려워	-8308
▁는	-8309
리시	-8310
ley	-8311
▁퍼져	-8312
▁서울시	-8313
▁경력을	-8314
▁직접적인	-8315
▁우익	-8316
▁막을	-8317
▁하다가	-8318
▁다룬	-8319
▁전남	-8320
▁정교회	-8321
류와	-8322
플라	-8323
▁미국이	-8324
▁이적했다	-8325
가루	-8326
▁사양	-8327
▁활동에	-8328
팀이	-8329
면서도	-8330
▁전체적으로	-8331
재인	-8332
▁사형	-8333
▁디자이너	-8334
▁윤치	-8335
▁세계적인	-8336
여래	-8337
▁명칭이	-8338
▁공동으로	-8339
히로	-8340
지기도	-8341
▁존재를	-8342
▁브라이언	-8343
▁강을	-8344
▁진술	-8345
▁죽고	-8346
▁프랜	-8347
▁라운드	-8348
▁스페셜	-8349
▁훈련을	-8350
▁보기	-8351
▁라이벌	-8352
▁지어진	-8353
데스리가	-8354
▁당선되었다	-8355
뱅크	-8356
▁마라	-8357
▁아니었다	-8358
▁구간은	-8359
▁결과적으로	-8360
▁펄	-8361
공의	-8362
롤라	-8363
▁임금	-8364
▁찾는	-8365
ft	-8366
그로	-8367
면과	-8368
▁동기	-8369
▁없기	-8370
프랑스	-8371
▁계획이	-8372
▁95	-8373
▁동맹을	-8374
글라	-8375
▁무인	-8376
토시	-8377
▁수천	-8378
▁250	-8379
위원회가	-8380
습을	-8381
이팅	-8382
IM	-8383
글로	-8384
▁Is	-8385
▁마시	-8386
▁주말	-8387
▁금메달	-8388
▁램	-8389
고한	-8390
음의	-8391
포스	-8392
▁법무	-8393
▁우즈	-8394
▁지정되어	-8395
▁대답	-8396
▁선두	-8397
▁그룹의	-8398
▁때때로	-8399
▁명단에	-8400
구리	-8401
▁미얀	-8402
▁체험	-8403
▁유지하고	-8404
▁분산	-8405
전기	-8406
▁자료를	-8407
▁발견했다	-8408
▁아마추어	-8409
▁경계를	-8410
하였을	-8411
▁자유를	-8412
곡이	-8413
▁1913	-8414
꼬리	-8415
▁대단	-8416
교가	-8417
보면	-8418
▁옆에	-8419
▁모양을	-8420
으려	-8421
▁가야	-8422
지방법원	-8423
▁전한	-8424
보병	-8425
▁계획은	-8426
▁발라	-8427
▁레닌	-8428
▁결과가	-8429
▁문화의	-8430
▁분야의	-8431
▁천체	-8432
▁호르	-8433
▁말하며	-8434
800	-8435
▁메리	-8436
▁배제	-8437
▁과학적	-8438
4)	-8439
편을	-8440
▁획득하였다	-8441
령에	-8442
여성	-8443
나라는	-8444
▁막부	-8445
▁원형	-8446
▁가질	-8447
▁건담	-8448
nowiki	-8449
토를	-8450
활동	-8451
년으로	-8452
시대에	-8453
▁전체의	-8454
▁예루살렘	-8455
▁뿐이다	-8456
,6	-8457
▁에릭	-8458
▁경기장	-8459
과도	-8460
▁설이	-8461
인들에게	-8462
▁역이	-8463
▁종로	-8464
▁진단	-8465
▁이야기가	-8466
번호	-8467
▁비로	-8468
row	-8469
▁벌였다	-8470
▁스승	-8471
▁역전	-8472
▁결정을	-8473
▁사용을	-8474
효소	-8475
▁변신	-8476
▁빨리	-8477
▁신설되었다	-8478
▁인간이	-8479
▁목숨을	-8480
식물	-8481
지대	-8482
▁떠난	-8483
▁찾을	-8484
티는	-8485
대학원	-8486
▁1915	-8487
ola	-8488
▁다가	-8489
▁얼마나	-8490
안군	-8491
▁국가에서	-8492
▁료	-8493
▁전승	-8494
▁박근혜	-8495
▁내륙	-8496
▁카페	-8497
▁지역과	-8498
EN	-8499
▁아나운	-8500
▁내지	-8501
방에	-8502
위원회는	-8503
민이	-8504
청이	-8505
광역시의	-8506
▁야기	-8507
▁사이클	-8508
▁보인	-8509
브를	-8510
▁지방에	-8511
학과를	-8512
▁계기가	-8513
▁도심	-8514
▁57	-8515
하라고	-8516
란트	-8517
우옌	-8518
▁박쥐	-8519
바나	-8520
▁힌두	-8521
▁쓴다	-8522
조판서	-8523
▁흙	-8524
▁애플리케이션	-8525
▁자전거	-8526
▁첫번째	-8527
▁탱	-8528
디의	-8529
▁관광객	-8530
▁토머스	-8531
▁말은	-8532
▁티베트	-8533
기획	-8534
▁적색	-8535
▁전향	-8536
▁실패했다	-8537
편이	-8538
▁댄스	-8539
왔고	-8540
쪽의	-8541
▁용어	-8542
▁항구	-8543
▁마르크스	-8544
▁중화인민공화국의	-8545
▁구상	-8546
▁군대는	-8547
▁이익을	-8548
-17	-8549
own	-8550
▁확인할	-8551
▁시스템의	-8552
IP	-8553
▁보좌	-8554
▁소나	-8555
▁두번째	-8556
▁센트럴	-8557
▁히어로	-8558
TS	-8559
▁애틀	-8560
▁의거	-8561
▁해제	-8562
리크	-8563
반을	-8564
▁발효	-8565
▁시대에는	-8566
▁활동한	-8567
▁Te	-8568
▁서독	-8569
▁활동이	-8570
군사	-8571
주인	-8572
▁대로	-8573
▁거주하는	-8574
▁않도록	-8575
▁그리스도	-8576
▁아베	-8577
▁염색	-8578
▁옛날	-8579
▁내내	-8580
▁빌헬	-8581
가타현	-8582
▁차이를	-8583
▁컬럼비아	-8584
▁타율	-8585
▁관점에서	-8586
):	-8587
토스	-8588
▁랭킹	-8589
해진다	-8590
유키	-8591
▁유물	-8592
▁중심지	-8593
▁봉해졌다	-8594
formula	-8595
ple	-8596
우드	-8597
▁얇	-8598
▁반사	-8599
▁일본어	-8600
▁동메달을	-8601
▁시작했으며	-8602
▁비잔	-8603
▁후반에	-8604
산맥	-8605
▁모순	-8606
음에	-8607
▁위치하며	-8608
▁시마	-8609
▁기재	-8610
▁통화	-8611
▁호남	-8612
사우루	-8613
▁라틴어	-8614
▁53	-8615
▁심한	-8616
▁일렉	-8617
▁개념은	-8618
▁접하고	-8619
▁버지니아	-8620
▁이곳에서	-8621
▁네덜란드의	-8622
▁별도로	-8623
niversity	-8624
리자	-8625
모니	-8626
▁러브	-8627
▁위기에	-8628
▁구간이	-8629
▁요구하는	-8630
출을	-8631
▁야생	-8632
▁젤	-8633
▁선제	-8634
▁MVP	-8635
▁간단한	-8636
▁내용의	-8637
▁우승에	-8638
▁다큐멘터리	-8639
마자	-8640
▁식별	-8641
▁어드	-8642
▁타원	-8643
▁후보에	-8644
년대부터	-8645
대원	-8646
▁가라	-8647
▁능력이	-8648
▁곁	-8649
lan	-8650
▁책봉	-8651
▁충족	-8652
권으로	-8653
▁근처의	-8654
▁시드니	-8655
▁폐기	-8656
▁원자력	-8657
▁2.	-8658
▁리이다	-8659
적이었다	-8660
론과	-8661
▁직무	-8662
▁트윈	-8663
현을	-8664
▁피난	-8665
▁시정촌	-8666
액을	-8667
▁운동의	-8668
▁동남아시아	-8669
신과	-8670
▁메가	-8671
▁충분한	-8672
▁담당하는	-8673
영이	-8674
▁아니고	-8675
▁요소를	-8676
클럽	-8677
들과의	-8678
미디어	-8679
▁좋아하는	-8680
▁웰	-8681
커스	-8682
▁NHK	-8683
초의	-8684
통일	-8685
▁역사적으로	-8686
▁최종적으로	-8687
아스	-8688
코가	-8689
▁아트	-8690
▁전원	-8691
석에	-8692
▁Ex	-8693
아를	-8694
▁친척	-8695
▁(20	-8696
▁!	-8697
시켰고	-8698
▁당했다	-8699
▁발생할	-8700
▁항공기	-8701
▁My	-8702
▁협상	-8703
▁서일본	-8704
▁정리한	-8705
▁미시	-8706
▁군대가	-8707
▁디즈니	-8708
▁미네	-8709
▁자손	-8710
증이	-8711
▁이지	-8712
▁합계	-8713
미에	-8714
음력	-8715
▁이곳에	-8716
말을	-8717
판으로	-8718
▁버전은	-8719
▁조약을	-8720
▁마친	-8721
▁건물이	-8722
▁활성화	-8723
▁아울러	-8724
▁프리미어리그	-8725
▁무신	-8726
▁유성	-8727
▁적대	-8728
▁아직도	-8729
하가	-8730
재의	-8731
츠와	-8732
▁메르	-8733
▁명단	-8734
▁신장	-8735
▁장편	-8736
▁두드러	-8737
▁선거에	-8738
▁무료	-8739
▁저택	-8740
▁했다고	-8741
조와	-8742
스트는	-8743
~3	-8744
▁모집	-8745
진흥	-8746
▁잊	-8747
분은	-8748
▁한국인	-8749
▁생각했다	-8750
바시	-8751
▁최신	-8752
cy	-8753
▁튜	-8754
악의	-8755
히고	-8756
▁대한제국	-8757
▁꺾고	-8758
▁시를	-8759
▁자격을	-8760
▁쪽으로	-8761
//	-8762
인치	-8763
▁점은	-8764
▁라이온	-8765
▁목격	-8766
▁섬유	-8767
▁성벽	-8768
▁측은	-8769
▁여동생	-8770
부문	-8771
▁대지	-8772
ax	-8773
▁호환	-8774
물질	-8775
병이	-8776
전에서는	-8777
바는	-8778
▁피렌	-8779
▁사용하며	-8780
▁서브	-8781
자연	-8782
회로	-8783
▁하나를	-8784
▁타이틀을	-8785
지사	-8786
ake	-8787
▁나선	-8788
경기를	-8789
▁수업	-8790
▁연계	-8791
▁주파	-8792
▁원래의	-8793
▁이외에	-8794
▁주제로	-8795
▁황후	-8796
,500	-8797
▁무선	-8798
▁끝났다	-8799
ha	-8800
▁흩	-8801
민당	-8802
밀리	-8803
▁사카	-8804
▁사령관	-8805
▁아들을	-8806
공동	-8807
ystem	-8808
▁막아	-8809
작을	-8810
org	-8811
▁많고	-8812
▁영화제	-8813
▁쏟	-8814
▁기록하고	-8815
▁()	-8816
▁58	-8817
▁남양	-8818
▁발족	-8819
▁여왕	-8820
▁데리고	-8821
▁브라우	-8822
▁학교를	-8823
▁기상청	-8824
▁아틀레	-8825
▁영화로	-8826
급의	-8827
▁섬의	-8828
▁이론은	-8829
▁al	-8830
▁재단	-8831
▁후의	-8832
▁충격	-8833
▁치료를	-8834
ism	-8835
▁맡았으며	-8836
았을	-8837
피를	-8838
▁말하고	-8839
ction	-8840
▁우수한	-8841
▁서식한다	-8842
▁동치	-8843
▁와카	-8844
▁국가를	-8845
▁당해	-8846
▁교향곡	-8847
▁있으면	-8848
▁선언했다	-8849
건은	-8850
▁취약	-8851
파크	-8852
▁험	-8853
성한	-8854
실록	-8855
팩트	-8856
▁겸임	-8857
▁잃고	-8858
스부르크	-8859
▁막대한	-8860
▁개최되었다	-8861
▁이복	-8862
▁전임	-8863
▁조용	-8864
▁최근에	-8865
▁편지를	-8866
▁1895	-8867
▁긍정적인	-8868
▁추산	-8869
함으로	-8870
▁700	-8871
▁북쪽에	-8872
▁언어로	-8873
▁코치로	-8874
:00	-8875
▁프레임	-8876
▁백인	-8877
▁사장	-8878
▁성공적인	-8879
▁AM	-8880
▁어워드	-8881
〉(	-8882
▁포함해	-8883
ons	-8884
▁신사	-8885
▁등이다	-8886
런스	-8887
▁일관	-8888
▁그동안	-8889
▁페이지	-8890
▁크리스토	-8891
▁전통적으로	-8892
▁부정적인	-8893
▁일로	-8894
이사	-8895
하러	-8896
▁경고	-8897
▁이토	-8898
▁힘이	-8899
▁인물이다	-8900
▁플레이어	-8901
▁달러를	-8902
▁부통령	-8903
▁독자적인	-8904
▁적을	-8905
▁리그에	-8906
본이	-8907
인간	-8908
▁UN	-8909
▁사용해	-8910
장한	-8911
▁DJ	-8912
▁온도	-8913
세스	-8914
▁사격	-8915
▁간접	-8916
▁아마도	-8917
▁아파트	-8918
▁연구가	-8919
▁급진	-8920
▁행정구역이다	-8921
문관	-8922
재는	-8923
▁하노	-8924
▁대학원	-8925
▁제목으로	-8926
그는	-8927
아키	-8928
▁《》	-8929
▁중력	-8930
▁낱	-8931
편성	-8932
▁스틸	-8933
▁이글	-8934
스테르	-8935
▁출시된	-8936
▁감독이다	-8937
온다	-8938
orn	-8939
OP	-8940
▁가해	-8941
▁왕위	-8942
▁회사는	-8943
▁지배를	-8944
수아	-8945
out	-8946
▁약한	-8947
▁연구소	-8948
현이	-8949
▁융합	-8950
▁은메달을	-8951
▁없애	-8952
▁돌아오	-8953
▁좌익	-8954
▁주장이	-8955
▁사이에는	-8956
수엘	-8957
주곡	-8958
▁복구	-8959
▁선수단	-8960
▁여기에는	-8961
oci	-8962
▁간다	-8963
라이트	-8964
▁버리고	-8965
▁지역이다	-8966
▁오스트레일리아의	-8967
▁99	-8968
▁해임	-8969
스틴	-8970
▁범주	-8971
▁베타	-8972
▁엉	-8973
▁라트	-8974
▁지내고	-8975
받지	-8976
형과	-8977
▁열어	-8978
▁근거로	-8979
▁가능하게	-8980
▁있다면	-8981
▁모델이다	-8982
▁지지하는	-8983
터로	-8984
▁않는다는	-8985
이후	-8986
ade	-8987
▁우리의	-8988
▁크리스티	-8989
변을	-8990
▁연루	-8991
편에	-8992
▁머리를	-8993
니까	-8994
▁세워졌다	-8995
▁일본에서는	-8996
▁읍	-8997
홈런	-8998
▁평생	-8999
▁슐	-9000
▁못해	-9001
사지	-9002
▁금강	-9003
▁로빈	-9004
▁모니	-9005
▁부착	-9006
▁불렀	-9007
▁앨범은	-9008
▁짙	-9009
▁입문	-9010
▁피부	-9011
▁깔	-9012
▁사유	-9013
▁가요	-9014
▁보살	-9015
▁어릴	-9016
▁태조	-9017
▁준공	-9018
▁SM	-9019
▁왕실	-9020
▁제약	-9021
나라를	-9022
▁물리학	-9023
▁갤럭시	-9024
▁잘못된	-9025
트르	-9026
▁브래	-9027
▁빛을	-9028
학자인	-9029
리타	-9030
▁현급	-9031
▁목적은	-9032
▁제국이	-9033
현악	-9034
▁1916	-9035
▁톨	-9036
▁말할	-9037
▁스리	-9038
▁기업이	-9039
▁뒤인	-9040
▁머무	-9041
▁전두	-9042
▁콩고	-9043
▁지중해	-9044
▁성의	-9045
▁주한	-9046
▁개업	-9047
▁팽창	-9048
▁움직임	-9049
▁대신에	-9050
▁시기는	-9051
▁자리에서	-9052
그리	-9053
림을	-9054
산에서	-9055
▁불만을	-9056
sk	-9057
사추	-9058
▁제도의	-9059
▁설립했다	-9060
▁1500	-9061
섬의	-9062
▁전투가	-9063
▁중이던	-9064
▁동서	-9065
▁무라	-9066
아와	-9067
시픽	-9068
▁미분	-9069
▁일본이	-9070
▁어렵다	-9071
▁메디	-9072
즈니스	-9073
▁인근에	-9074
)」	-9075
▁게재	-9076
)』	-9077
라이더	-9078
▁수록된	-9079
▁곳곳	-9080
▁후쿠시마	-9081
시타	-9082
tit	-9083
▁디젤	-9084
▁약물	-9085
▁양식	-9086
▁포크	-9087
▁들어와	-9088
▁되었으나	-9089
▁성균	-9090
▁사로잡	-9091
▁섭취	-9092
▁캠페	-9093
하우스	-9094
▁언어를	-9095
▁번호	-9096
▁시기의	-9097
민족행위	-9098
na	-9099
▁쿨	-9100
ild	-9101
▁상무	-9102
▁응답	-9103
▁한동안	-9104
금융	-9105
랑이	-9106
디아라비아	-9107
▁휩	-9108
▁된다는	-9109
▁고베	-9110
▁스콧	-9111
▁제휴	-9112
구역	-9113
츠키	-9114
▁반환	-9115
▁기술이	-9116
▁아리스	-9117
▁구체적인	-9118
▁템	-9119
▁플라스	-9120
발의	-9121
▁New	-9122
된다고	-9123
바야	-9124
였기	-9125
▁임상	-9126
▁사람에게	-9127
소한	-9128
차별	-9129
▁때도	-9130
차전에서	-9131
민은	-9132
lin	-9133
▁값을	-9134
▁두개	-9135
▁베이스볼	-9136
▁시작해	-9137
▁곰	-9138
▁개성	-9139
▁젖	-9140
티움	-9141
▁정벌	-9142
▁일했다	-9143
▁등재	-9144
▁나라를	-9145
▁조사를	-9146
▁비극	-9147
▁제작되었다	-9148
-6	-9149
켰다	-9150
팀인	-9151
▁소속되어	-9152
CC	-9153
▁하천	-9154
▁항해	-9155
▁향한	-9156
▁이스트	-9157
▁후기의	-9158
▁삶의	-9159
▁트럭	-9160
▁계열의	-9161
▁승리로	-9162
▁정도가	-9163
▁88	-9164
▁애국	-9165
도사	-9166
명인	-9167
▁알려지지	-9168
▁문화재자료	-9169
니치	-9170
▁정원	-9171
▁주립	-9172
속으로	-9173
ection	-9174
▁합법	-9175
▁사용자가	-9176
▁김동	-9177
▁날개	-9178
▁도로이다	-9179
▁개발된	-9180
▁남한	-9181
▁달아	-9182
▁채로	-9183
▁타운	-9184
AL	-9185
▁페루	-9186
간을	-9187
렸던	-9188
▁말한	-9189
▁탕	-9190
▁폼	-9191
년은	-9192
▁악화	-9193
▁적의	-9194
▁합리	-9195
▁남쪽에	-9196
▁°	-9197
미와	-9198
▁조치를	-9199
등록	-9200
▁대결	-9201
▁의장	-9202
▁포맷	-9203
▁흔들	-9204
▁굉	-9205
▁미하	-9206
▁방영되었다	-9207
방이	-9208
스컵	-9209
시피	-9210
▁감지	-9211
▁닿	-9212
오르	-9213
▁법학	-9214
▁지어졌다	-9215
▁무력	-9216
▁면에서	-9217
▁말하였다	-9218
▁고조	-9219
▁내장	-9220
▁손자	-9221
▁자바	-9222
▁루트비히	-9223
▁주문	-9224
▁결혼을	-9225
▁보스니아	-9226
▁프로그램은	-9227
ook	-9228
▁싱글이다	-9229
▁활약하였다	-9230
▁서남	-9231
▁닌텐도	-9232
▁맞는	-9233
▁달러의	-9234
▁운행하는	-9235
아리	-9236
▁필라델	-9237
▁파운드	-9238
▁불리기도	-9239
▁한국방송	-9240
규칙	-9241
▁이자	-9242
▁지목	-9243
▁실시된	-9244
헤이	-9245
온의	-9246
-16	-9247
▁당한	-9248
▁라는	-9249
▁아가	-9250
Sh	-9251
겼고	-9252
고려	-9253
디에	-9254
▁이듬해인	-9255
▁착륙	-9256
▁속도로	-9257
▁총선에서	-9258
▁속도를	-9259
▁시호는	-9260
▁제국은	-9261
▁후보는	-9262
칸센	-9263
400	-9264
▁예언	-9265
▁학자	-9266
▁시간은	-9267
▁내부의	-9268
▁마케팅	-9269
▁어두운	-9270
▁활약했다	-9271
▁고등학교이다	-9272
제이	-9273
▁차남	-9274
▁컸	-9275
▁기업의	-9276
▁다루고	-9277
▁유소년	-9278
▁후지와	-9279
▁자유롭게	-9280
렸을	-9281
마치	-9282
▁포로	-9283
칭은	-9284
▁서서히	-9285
타케	-9286
▁현의	-9287
▁노르웨	-9288
▁방식은	-9289
▁한국에서는	-9290
항은	-9291
▁무용	-9292
▁밴드는	-9293
HO	-9294
석과	-9295
▁폴란드의	-9296
▁칩	-9297
▁기호	-9298
▁이명박	-9299
▁철도의	-9300
▁가사	-9301
독일	-9302
스파	-9303
져서	-9304
▁재무	-9305
대한민	-9306
▁아니며	-9307
▁전투에	-9308
▁길고	-9309
▁남긴	-9310
▁용산	-9311
▁상태이다	-9312
▁목적을	-9313
▁발전에	-9314
▁훌륭한	-9315
▁하인리히	-9316
-21	-9317
▁국토	-9318
▁맞게	-9319
바이러스	-9320
▁고교	-9321
▁관통	-9322
▁pro	-9323
▁진정한	-9324
▁나가사키	-9325
세츠	-9326
▁착수	-9327
▁쿠르	-9328
▁지속적인	-9329
▁착공	-9330
igh	-9331
▁파리에서	-9332
▁카자흐스탄	-9333
▁세로	-9334
▁카탈	-9335
▁한화	-9336
▁구조의	-9337
▁It	-9338
▁테일러	-9339
등에	-9340
▁에서	-9341
▁바꾸었다	-9342
매치	-9343
▁경북	-9344
▁포인	-9345
▁MC	-9346
▁종전	-9347
▁주어졌다	-9348
보에	-9349
▁교외	-9350
▁때로는	-9351
erv	-9352
▁알코	-9353
▁다이아	-9354
▁방식의	-9355
블로	-9356
▁수치	-9357
▁66	-9358
▁발견되는	-9359
▁현존하는	-9360
포트	-9361
▁비서	-9362
▁과정은	-9363
▁사우디아라비아	-9364
hPa	-9365
패로	-9366
▁여덟	-9367
▁시대를	-9368
EP	-9369
음은	-9370
▁남아있다	-9371
▁끝이	-9372
▁트레	-9373
▁형태가	-9374
▁프로그램의	-9375
▁귀환	-9376
▁사용이	-9377
역사	-9378
▁메타	-9379
▁비공식	-9380
▁전투는	-9381
▁코리아	-9382
▁닐	-9383
가스	-9384
숙한	-9385
조정	-9386
슈타인	-9387
▁바이올린	-9388
高等學校	-9389
▁전성	-9390
▁사용하기	-9391
네스코	-9392
▁본격적인	-9393
▁몰락	-9394
극장	-9395
▁72	-9396
▁Se	-9397
▁이오	-9398
▁구름	-9399
_6	-9400
▁규제	-9401
▁군사적	-9402
▁부르며	-9403
프에	-9404
▁실용	-9405
수수	-9406
▁오가	-9407
안으로	-9408
▁시작된다	-9409
▁점성	-9410
▁축제	-9411
ans	-9412
▁고성	-9413
▁빌리	-9414
▁올림	-9415
▁포괄	-9416
▁현상이	-9417
검찰	-9418
카를	-9419
톤의	-9420
▁늘어나	-9421
▁보충	-9422
▁독일에서	-9423
ta	-9424
tis	-9425
▁오고	-9426
▁할당	-9427
▁대주교	-9428
▁스카이	-9429
-7	-9430
▁85	-9431
▁법원	-9432
▁피에	-9433
▁리메이	-9434
▁우리나라	-9435
▁신규	-9436
▁팔레스타	-9437
르와	-9438
챌린	-9439
▁최저	-9440
자리에	-9441
▁회의에서	-9442
PG	-9443
투쟁	-9444
▁가지게	-9445
▁얻기	-9446
▁지점	-9447
▁북한의	-9448
건이	-9449
▁교과	-9450
▁얻는	-9451
주년을	-9452
란의	-9453
▁공용	-9454
▁좋다	-9455
받는다	-9456
▁무대에	-9457
▁오렌	-9458
▁이승만	-9459
▁고도	-9460
▁기동	-9461
▁사고로	-9462
▁바티	-9463
▁화려한	-9464
▁페스티벌	-9465
인들	-9466
▁59	-9467
▁고분	-9468
▁박탈	-9469
▁부품	-9470
▁쟁	-9471
▁배정	-9472
▁오디오	-9473
하우	-9474
▁뒤에는	-9475
▁부분적으로	-9476
▁양도	-9477
모로	-9478
시민	-9479
의에	-9480
▁대폭	-9481
▁수단	-9482
▁술탄	-9483
가와현	-9484
▁스파이	-9485
▁마쓰다이라	-9486
▁바가	-9487
▁해군의	-9488
해방	-9489
▁무늬	-9490
▁부흥	-9491
▁독일어	-9492
▁이처럼	-9493
불교	-9494
▁물에	-9495
▁인조	-9496
르키예	-9497
▁구조는	-9498
▁82	-9499
▁가면	-9500
으로의	-9501
▁여성이	-9502
▁일찍이	-9503
▁엘리자베스	-9504
▁아니면	-9505
▁당의	-9506
▁미카	-9507
ii	-9508
▁기록에	-9509
▁리투아니아	-9510
시절	-9511
주일	-9512
()"	-9513
▁둘은	-9514
▁작고	-9515
스트의	-9516
▁응우옌	-9517
▁시작하는	-9518
행은	-9519
▁애틀랜	-9520
란을	-9521
▁대우	-9522
▁한신	-9523
▁꾀	-9524
rid	-9525
▁곡의	-9526
▁동지	-9527
어진다	-9528
OV	-9529
▁아르헨티	-9530
HE	-9531
수산	-9532
▁베네수엘	-9533
▁하나님의	-9534
▁활약하고	-9535
▁마찰	-9536
▁무효	-9537
:1	-9538
청을	-9539
▁경력	-9540
▁낮아	-9541
▁한양	-9542
▁출전해	-9543
▁원작으로	-9544
르를	-9545
조약	-9546
▁병력	-9547
생으로	-9548
GC	-9549
.25	-9550
▁곳이	-9551
▁로저	-9552
태평양	-9553
고도	-9554
▁곡으로	-9555
▁과거의	-9556
직한	-9557
▁죽을	-9558
▁어려움을	-9559
내기	-9560
라미	-9561
▁엔지	-9562
▁오세	-9563
▁미스터	-9564
▁무려	-9565
▁측근	-9566
▁해적	-9567
▁떼	-9568
▁롬	-9569
색이	-9570
▁인텔	-9571
▁지각	-9572
▁연구하는	-9573
금으로	-9574
htt	-9575
▁갑작	-9576
▁라우	-9577
▁사육	-9578
▁특수한	-9579
▁황제가	-9580
▁가능하며	-9581
▁중구	-9582
년대에는	-9583
▁중앙에	-9584
▁돌연	-9585
▁현장	-9586
▁달성했다	-9587
터스	-9588
rig	-9589
▁반지	-9590
▁자식	-9591
▁둘러싼	-9592
있고	-9593
▁살던	-9594
▁모델을	-9595
너의	-9596
▁끊임	-9597
곡으로	-9598
▁보내는	-9599
▁펴	-9600
▁※	-9601
▁의지	-9602
▁중순	-9603
▁의원이	-9604
▁선수이자	-9605
▁알바니아	-9606
백을	-9607
▁근접	-9608
▁이원	-9609
▁조치	-9610
▁따르는	-9611
▁시즌에는	-9612
즈에	-9613
-23	-9614
▁메모	-9615
▁싫어	-9616
▁덴마크의	-9617
타니	-9618
▁않았기	-9619
과이	-9620
소스	-9621
▁부과	-9622
▁선진	-9623
▁비가	-9624
"("	-9625
▁발견한	-9626
▁하버드	-9627
병의	-9628
▁맡게	-9629
▁건물을	-9630
▁졸업하였다	-9631
▁들은	-9632
▁여의	-9633
▁평행	-9634
풍속	-9635
▁작품에	-9636
▁각기	-9637
▁시집	-9638
▁통근	-9639
▁신칸센	-9640
뉴스	-9641
lic	-9642
▁밖의	-9643
▁세대	-9644
▁승차	-9645
▁청와	-9646
▁득점을	-9647
▁레이저	-9648
▁빌헬름	-9649
만명	-9650
▁창업	-9651
수사	-9652
(10	-9653
교회의	-9654
레의	-9655
▁진출했다	-9656
러시아	-9657
▁오스트리아의	-9658
네의	-9659
자책	-9660
▁교섭	-9661
▁박영	-9662
▁네이션	-9663
▁멤버로	-9664
▁정확하게	-9665
▁디스플레이	-9666
하니	-9667
후보	-9668
▁공학	-9669
▁부패	-9670
▁연애	-9671
게이머	-9672
ternational	-9673
▁토대로	-9674
ren	-9675
▁주도는	-9676
▁공략	-9677
▁사료	-9678
▁이르고	-9679
▁아서	-9680
▁노래는	-9681
▁확인되었다	-9682
▁초연	-9683
형이다	-9684
▁지점에	-9685
사추세츠	-9686
카라	-9687
동에서	-9688
▁민주주의	-9689
진과	-9690
▁그림을	-9691
▁규정하고	-9692
▁매개	-9693
▁토마	-9694
슨과	-9695
심한	-9696
▁부른	-9697
▁아세	-9698
▁동화	-9699
▁훼손	-9700
열이	-9701
▁김용	-9702
▁보상	-9703
▁누르고	-9704
해와	-9705
▁동독	-9706
▁아인	-9707
경으로	-9708
▁굵	-9709
▁IP	-9710
▁판결을	-9711
▁차기	-9712
▁초창	-9713
▁기생	-9714
▁피고	-9715
고속	-9716
▁달의	-9717
▁요르	-9718
스러	-9719
▁흐름	-9720
▁또다시	-9721
▁성공한	-9722
▁엘리베이	-9723
▁프로토콜	-9724
▁학생들이	-9725
,9	-9726
관찰	-9727
▁진도	-9728
▁공동체	-9729
▁운동이	-9730
▁조직의	-9731
▁상임	-9732
▁가즈	-9733
▁목표를	-9734
▁이미지를	-9735
▁윙	-9736
」(	-9737
티에	-9738
.2%	-9739
▁주축	-9740
▁사실은	-9741
▁일어날	-9742
▁주에서	-9743
://	-9744
▁스핀	-9745
reat	-9746
▁껍	-9747
▁뜻의	-9748
▁영국은	-9749
▁전세계	-9750
인구	-9751
터에	-9752
스에게	-9753
런트	-9754
▁종의	-9755
▁과정에	-9756
▁명예의	-9757
▁일으키는	-9758
▁날짜	-9759
▁원산	-9760
▁노력을	-9761
▁따뜻	-9762
▁피어	-9763
▁비슷하다	-9764
,3	-9765
▁산타	-9766
측의	-9767
내에서	-9768
▁학교에	-9769
▁들어가는	-9770
몬드	-9771
형태	-9772
회와	-9773
▁산림	-9774
▁건너가	-9775
▁전한다	-9776
▁특징은	-9777
▁에스토니아	-9778
▁당대	-9779
▁보잉	-9780
▁복사	-9781
▁여론	-9782
▁이순	-9783
▁자발	-9784
▁창시	-9785
▁일본군	-9786
▁캠퍼	-9787
브리지	-9788
▁에티오	-9789
▁퇴각	-9790
▁연방의	-9791
▁77	-9792
▁이마	-9793
해주	-9794
▁철학자	-9795
반응	-9796
▁오키나와	-9797
▁땅에	-9798
▁보니	-9799
▁펜실	-9800
▁시작되어	-9801
▁김태	-9802
▁일조	-9803
▁희극	-9804
▁전부터	-9805
▁하와이	-9806
▁분류된다	-9807
▁고지	-9808
▁석탄	-9809
▁햄	-9810
층은	-9811
▁Ad	-9812
▁싶어	-9813
서이다	-9814
▁휠	-9815
자원	-9816
▁도구	-9817
▁이틀	-9818
▁그렇지	-9819
▁의견이	-9820
▁출력	-9821
▁정부와	-9822
▁사이타마	-9823
로동	-9824
분야	-9825
oll	-9826
▁며칠	-9827
▁생각된다	-9828
용이	-9829
우와	-9830
▁달린	-9831
▁중요하다	-9832
▁중독	-9833
▁챌린	-9834
▁다음이	-9835
▁사용될	-9836
▁펀	-9837
▁급속	-9838
▁추증	-9839
▁체제를	-9840
▁총괄	-9841
치면서	-9842
▁Mus	-9843
▁구체적으로	-9844
리면서	-9845
▁정의할	-9846
▁컨트롤	-9847
▁추정되는	-9848
석기	-9849
용은	-9850
자본	-9851
lay	-9852
▁ch	-9853
▁드림	-9854
서에서	-9855
ward	-9856
▁소재로	-9857
▁샬	-9858
▁백악	-9859
▁장의	-9860
▁문서는	-9861
▁실험을	-9862
▁턱	-9863
억원	-9864
초에	-9865
▁캄보	-9866
아메리카	-9867
이었다고	-9868
▁5000	-9869
르노	-9870
.6%	-9871
▁안쪽	-9872
▁연고로	-9873
▁관계로	-9874
▁사상을	-9875
팀은	-9876
▁마산	-9877
▁바그	-9878
▁바위	-9879
▁이영	-9880
▁중심의	-9881
상으로는	-9882
▁유네스코	-9883
▁조선총독부	-9884
▁르네상	-9885
▁마리오	-9886
▁없으나	-9887
▁카이사	-9888
ology	-9889
▁1.5	-9890
▁목록은	-9891
님이	-9892
▁정찰	-9893
▁줄어	-9894
성이다	-9895
▁동명의	-9896
▁아래로	-9897
▁약화	-9898
▁차례로	-9899
▁법을	-9900
▁알라	-9901
제프	-9902
티의	-9903
▁보여주고	-9904
에너	-9905
eth	-9906
▁실종	-9907
사령부	-9908
세에게	-9909
▁아이를	-9910
▁칼리지	-9911
▁제외하고는	-9912
크리	-9913
▁드럼	-9914
▁트랜스	-9915
고쿠	-9916
슬란드	-9917
▁끝나고	-9918
러의	-9919
▁한강	-9920
▁튀르키예	-9921
▁래퍼	-9922
▁신속	-9923
케이션	-9924
▁Ph	-9925
▁외곽	-9926
▁화면	-9927
이거나	-9928
MI	-9929
▁케네	-9930
마일	-9931
우며	-9932
▁척추	-9933
▁여행을	-9934
ts	-9935
▁샹	-9936
희는	-9937
▁건의	-9938
▁동구	-9939
▁리스	-9940
학교에	-9941
▁유니폼	-9942
▁돌아갔다	-9943
만원	-9944
열의	-9945
오를	-9946
한을	-9947
▁포인트	-9948
티모	-9949
▁영향력	-9950
▁차지한	-9951
▁특유의	-9952
▁룩	-9953
▁소유하고	-9954
▁수행하는	-9955
▁나이지	-9956
▁물리적	-9957
견을	-9958
네는	-9959
전사	-9960
회장	-9961
the	-9962
▁수신	-9963
▁수평	-9964
▁풀어	-9965
_7	-9966
도서관	-9967
▁디비시	-9968
▁하거나	-9969
▁후보를	-9970
▁성별	-9971
▁운행을	-9972
▁집으로	-9973
▁비슷하게	-9974
.1%	-9975
▁반경	-9976
화하고	-9977
▁프랑스와	-9978
▁걱	-9979
더는	-9980
▁Wh	-9981
내셔널	-9982
▁국가대표팀의	-9983
▁스타크래프트	-9984
▁계절	-9985
▁명백	-9986
▁풀려	-9987
▁형식을	-9988
테쓰	-9989
▁미치	-9990
누리	-9991
▁공전	-9992
▁관습	-9993
▁목조	-9994
▁찾아가	-9995
미나	-9996
▁잃은	-9997
연이	-9998
▁털이	-9999
▁받기도	-10000
▁형식의	-10001
▁비즈니스	-10002
▁얀	-10003
▁번뇌	-10004
ream	-10005
▁전쟁은	-10006
EO	-10007
▁푸른	-10008
▁풋볼	-10009
▁성질을	-10010
롤라이나	-10011
결합	-10012
▁학부	-10013
▁프랑스어	-10014
▁식량	-10015
▁에우	-10016
▁팩	-10017
▁미토	-10018
▁이나	-10019
▁텔	-10020
니를	-10021
▁명문	-10022
▁쓰인	-10023
▁전에는	-10024
교로	-10025
그러	-10026
반도	-10027
.3%	-10028
▁나의	-10029
▁성씨	-10030
▁신용	-10031
▁조상	-10032
▁만났다	-10033
▁대외	-10034
▁위기	-10035
있으며	-10036
▁아래는	-10037
교수	-10038
안타	-10039
way	-10040
▁MP	-10041
▁배틀	-10042
UN	-10043
▁뿌리	-10044
▁왕으로	-10045
▁마케도니아	-10046
▁모두가	-10047
▁3000	-10048
US	-10049
▁사직	-10050
▁추모	-10051
▁거기에	-10052
▁쫓겨	-10053
음으로	-10054
▁시로	-10055
▁역과	-10056
▁왕위를	-10057
행에	-10058
▁사르	-10059
red	-10060
▁점유	-10061
천을	-10062
▁부장	-10063
기관이다	-10064
▁일제강점기	-10065
(7	-10066
자리를	-10067
▁피에르	-10068
카타	-10069
ere	-10070
ime	-10071
▁공무	-10072
▁액체	-10073
▁라이선	-10074
▁가벼	-10075
▁느낀	-10076
▁오오	-10077
위원회의	-10078
월드	-10079
▁쇼군	-10080
▁장난	-10081
▁진영	-10082
▁항일	-10083
시까지	-10084
▁각본을	-10085
▁임명되어	-10086
▁미국에서는	-10087
곡의	-10088
▁전역	-10089
▁기록된	-10090
FM	-10091
▁동년	-10092
▁아비	-10093
OL	-10094
격이	-10095
▁안의	-10096
▁모델은	-10097
▁줄여서	-10098
목의	-10099
▁배를	-10100
트리올	-10101
▁리눅스	-10102
▁기록하여	-10103
▁셈	-10104
.4%	-10105
▁인생	-10106
▁그러자	-10107
위대	-10108
히메	-10109
lass	-10110
▁서울에서	-10111
▁트레이드	-10112
▁성은	-10113
▁중계	-10114
▁본선의	-10115
▁소수의	-10116
▁진행된	-10117
~2	-10118
▁옐	-10119
▁무거운	-10120
▁이곳은	-10121
바이잔	-10122
▁북부에	-10123
▁특이한	-10124
범한	-10125
▁Un	-10126
▁조건으로	-10127
목적	-10128
▁63	-10129
▁두산	-10130
▁못할	-10131
▁촉구	-10132
버스터	-10133
▁디비전	-10134
▁분야에	-10135
▁안타	-10136
▁도서관	-10137
▁재산을	-10138
▁1890	-10139
▁시나리오	-10140
예프	-10141
ise	-10142
▁조직을	-10143
▁mm	-10144
▁라트비아	-10145
▁자율	-10146
▁이어진다	-10147
▁구미	-10148
▁연속으로	-10149
▁민속	-10150
▁시라	-10151
▁인정받아	-10152
디가	-10153
▁Co	-10154
▁모드	-10155
▁외의	-10156
John	-10157
▁경우를	-10158
▁죽이고	-10159
▁가마쿠라	-10160
제르바이잔	-10161
8)	-10162
▁얘	-10163
▁수수	-10164
바닥	-10165
▁몬테	-10166
▁무죄	-10167
▁심판	-10168
▁삼고	-10169
▁남부의	-10170
▁영역을	-10171
▁관할하는	-10172
▁필라델피아	-10173
러가	-10174
▁김재	-10175
▁서머	-10176
▁스타일	-10177
▁어려움	-10178
▁진출하였다	-10179
작곡	-10180
DA	-10181
▁멈추	-10182
시노	-10183
심의	-10184
▁용이	-10185
▁레이다	-10186
▁자신에게	-10187
중에는	-10188
▁CPU	-10189
▁맡았고	-10190
▁1894	-10191
▁바꿔	-10192
▁결혼했다	-10193
일드	-10194
▁(1	-10195
▁형태는	-10196
▁등장했다	-10197
▁j	-10198
▁버튼	-10199
▁만화가	-10200
▁작곡한	-10201
▁레전	-10202
▁점이다	-10203
ames	-10204
▁우즈베	-10205
▁리메이크	-10206
▁68	-10207
▁필름	-10208
▁화재	-10209
▁거리가	-10210
▁기간에	-10211
▁영화에	-10212
▁투르크	-10213
▁꽤	-10214
▁관직	-10215
명이었다	-10216
미로	-10217
▁기요	-10218
▁쉬운	-10219
실과	-10220
~20	-10221
▁대처	-10222
▁아이슬란드	-10223
났을	-10224
연속	-10225
▁아즈	-10226
베트남	-10227
▁움직이는	-10228
▁반박	-10229
▁밝혔	-10230
▁연령	-10231
▁아이템	-10232
?"	-10233
경영	-10234
▁IT	-10235
공산당	-10236
▁우연히	-10237
▁1902	-10238
▁몸무게는	-10239
책임	-10240
이라도	-10241
기준	-10242
▁의뢰	-10243
▁정책에	-10244
▁측면에서	-10245
▁밟	-10246
▁클린	-10247
색은	-10248
.7%	-10249
▁남부에	-10250
▁원자로	-10251
▁체계를	-10252
▁럭	-10253
▁림	-10254
나우	-10255
업이	-10256
▁김영삼	-10257
하였다는	-10258
▁일본으로	-10259
▁찾기	-10260
▁침해	-10261
▁분데스리가	-10262
▁전세	-10263
▁무소	-10264
▁빛의	-10265
하려면	-10266
▁고무	-10267
▁속도가	-10268
▁밀양	-10269
▁친정	-10270
6)	-10271
온이	-10272
▁외야	-10273
▁평소	-10274
자스	-10275
무기	-10276
▁유출	-10277
▁전인	-10278
▁증기	-10279
박물관	-10280
▁이상으로	-10281
▁설립하였다	-10282
선조	-10283
▁내보	-10284
▁이리	-10285
▁누군	-10286
▁미스	-10287
ener	-10288
▁낙선	-10289
▁사적	-10290
작전	-10291
츠가	-10292
▁관람	-10293
▁교도	-10294
▁하야	-10295
▁개발에	-10296
▁문재인	-10297
▁역임한	-10298
▁출연한	-10299
▁그룹이다	-10300
▁분리되어	-10301
메라	-10302
▁생기는	-10303
▁전쟁으로	-10304
▁군을	-10305
▁김진	-10306
▁기온은	-10307
받을	-10308
▁공의	-10309
▁스위스의	-10310
능력	-10311
이었기	-10312
▁물고기	-10313
짜리	-10314
▁막내	-10315
턴은	-10316
▁소니	-10317
▁개혁을	-10318
▁화살	-10319
▁건물의	-10320
▁결과에	-10321
▁의사를	-10322
▁활동은	-10323
▁몬트리올	-10324
▁분광	-10325
▁마쳤다	-10326
▁부문에서	-10327
▁특징으로	-10328
반민족행위	-10329
주택	-10330
fer	-10331
▁군단	-10332
▁마오	-10333
▁지냈으며	-10334
▁일시적으로	-10335
▁신생	-10336
▁프로듀싱	-10337
ata	-10338
▁지명을	-10339
Sp	-10340
▁내외	-10341
▁시점	-10342
▁중심이	-10343
▁아니지만	-10344
▁급격히	-10345
▁도움으로	-10346
▁형성한다	-10347
▁개발하고	-10348
란이	-10349
목이	-10350
있던	-10351
▁공사가	-10352
▁・	-10353
▁Cl	-10354
▁김상	-10355
▁월간	-10356
▁이바	-10357
▁도호쿠	-10358
▁싱글로	-10359
▁의원은	-10360
▁헐	-10361
강과	-10362
마사	-10363
.8%	-10364
▁리뷰	-10365
▁장려	-10366
공이	-10367
주기	-10368
▁바뀐	-10369
▁들어오	-10370
▁참가하는	-10371
▁기체	-10372
▁소총	-10373
▁Car	-10374
▁위협을	-10375
▁구동	-10376
▁기지	-10377
▁꿈을	-10378
▁끌려	-10379
▁모시	-10380
▁유신	-10381
연구원	-10382
▁국가에	-10383
▁과학기술	-10384
레를	-10385
▁급행	-10386
▁받기	-10387
▁짓고	-10388
▁독일은	-10389
RA	-10390
일간	-10391
▁내야	-10392
▁분배	-10393
▁인플	-10394
▁증권	-10395
가에서	-10396
▁리버풀	-10397
▁사회에	-10398
▁준우승을	-10399
미노	-10400
▁강경	-10401
▁코트	-10402
▁통칭	-10403
▁식으로	-10404
레아	-10405
▁구리	-10406
벤처	-10407
▁침몰	-10408
▁언제나	-10409
▁기록하면서	-10410
tiv	-10411
▁AS	-10412
▁나아	-10413
▁이인	-10414
▁대통령을	-10415
RE	-10416
저는	-10417
▁눈이	-10418
▁경제학	-10419
년간의	-10420
▁62	-10421
▁미주	-10422
▁왕족	-10423
합니다	-10424
▁자체는	-10425
층이	-10426
▁리얼	-10427
▁팀에	-10428
▁정렬	-10429
▁아폴	-10430
▁특급	-10431
▁강제로	-10432
▁잦	-10433
백과	-10434
소득	-10435
업에	-10436
▁쇼핑	-10437
중에서	-10438
▁1898	-10439
▁불을	-10440
▁스티브	-10441
▁한국에	-10442
▁설명했다	-10443
▁대전광역시	-10444
량으로	-10445
▁된다고	-10446
▁하였는데	-10447
번을	-10448
▁부를	-10449
▁주행	-10450
--	-10451
석탑	-10452
▁몰려	-10453
▁어울	-10454
▁이긴	-10455
▁일에	-10456
▁우주의	-10457
▁제품을	-10458
코드	-10459
▁숙종	-10460
▁아는	-10461
▁차가	-10462
▁치명	-10463
부르	-10464
타리오	-10465
▁앓	-10466
▁왕자	-10467
도르프	-10468
▁구조가	-10469
▁소설을	-10470
▁캐스팅	-10471
설이	-10472
▁다음에	-10473
▁아미노	-10474
▁자신과	-10475
▁뿔	-10476
▁전당	-10477
▁주차	-10478
▁회담	-10479
▁네이버	-10480
▁다카라	-10481
ius	-10482
▁라스	-10483
▁숨겨	-10484
▁신흥	-10485
▁전진	-10486
▁초과	-10487
커니즘	-10488
▁시설이	-10489
무스	-10490
▁객관	-10491
▁권위	-10492
▁장로	-10493
▁출토	-10494
Le	-10495
MP	-10496
▁붓	-10497
마와	-10498
▁단종	-10499
▁선구	-10500
▁안장	-10501
▁치열	-10502
▁시점에서	-10503
▁조별리그	-10504
▁훔	-10505
동맥	-10506
▁마천	-10507
▁위안	-10508
▁첨가	-10509
▁출산	-10510
▁호칭	-10511
▁마을의	-10512
▁뉴욕에서	-10513
목은	-10514
치료	-10515
▁양키	-10516
-8	-10517
▁갓	-10518
▁지금도	-10519
DS	-10520
TP	-10521
▁→	-10522
투를	-10523
▁주와	-10524
학위를	-10525
▁연결된	-10526
▁제네바	-10527
라트	-10528
르지	-10529
▁써서	-10530
▁실시간	-10531
▁인접한	-10532
▁University	-10533
인명	-10534
▁다중	-10535
▁좌절	-10536
▁동물의	-10537
-18	-10538
▁리치	-10539
▁탓에	-10540
시부터	-10541
ble	-10542
▁다녀	-10543
▁소실	-10544
▁요소가	-10545
▁은퇴를	-10546
▁항공모	-10547
박사	-10548
▁깨달	-10549
▁언더	-10550
▁입체	-10551
▁태종	-10552
▁향후	-10553
▁교차로	-10554
▁전체가	-10555
▁1901	-10556
▁홈페이지	-10557
누엘	-10558
~4	-10559
▁삿	-10560
주간	-10561
▁곡이	-10562
하였기	-10563
▁가난한	-10564
▁나이가	-10565
▁코무네	-10566
▁수렴	-10567
▁재활	-10568
▁선교사	-10569
▁키프로	-10570
▁하나였다	-10571
고종	-10572
글리	-10573
두는	-10574
▁소환	-10575
▁시즈	-10576
▁우울	-10577
▁헤드	-10578
▁스튜어	-10579
▁잠수함	-10580
5)	-10581
그레	-10582
기기	-10583
대구	-10584
▁순천	-10585
▁있었다는	-10586
▁친일반민족행위	-10587
▁끓	-10588
돌이	-10589
민을	-10590
비나	-10591
▁것인	-10592
▁이슈	-10593
▁되었을	-10594
▁인물을	-10595
▁경사	-10596
▁이관	-10597
▁칭호를	-10598
작품	-10599
▁듯한	-10600
▁조반	-10601
포의	-10602
▁관중	-10603
▁내고	-10604
현에	-10605
▁보완	-10606
사태	-10607
▁걸어	-10608
▁목사	-10609
▁창건	-10610
▁아사히	-10611
스와의	-10612
▁있어서는	-10613
▁세션	-10614
▁에디	-10615
▁음식을	-10616
전선	-10617
▁이식	-10618
푸르트	-10619
항에	-10620
▁신라의	-10621
▁영상을	-10622
▁용어를	-10623
▁그리스어	-10624
▁연결된다	-10625
▁알제	-10626
▁저명한	-10627
▁멕시코의	-10628
▁둥근	-10629
▁모방	-10630
▁에버	-10631
▁공간의	-10632
▁생각하는	-10633
▁되었	-10634
▁디아	-10635
▁옷을	-10636
▁총선거	-10637
▁되었지만	-10638
주식	-10639
피는	-10640
▁볼리	-10641
▁주제가	-10642
노프	-10643
올로	-10644
▁예배	-10645
해왔다	-10646
▁마이크	-10647
진에	-10648
▁선을	-10649
▁구조로	-10650
_8	-10651
.9%	-10652
▁환원	-10653
▁개발되었다	-10654
화하여	-10655
▁영어로	-10656
▁치러진	-10657
▁검증	-10658
▁경비	-10659
▁별의	-10660
▁검은색	-10661
▁마을을	-10662
▁상징하는	-10663
버러	-10664
▁유격	-10665
▁한쪽	-10666
▁나갔다	-10667
▁스테이지	-10668
바스	-10669
▁입자	-10670
▁형법	-10671
수인	-10672
▁요금	-10673
▁플랑	-10674
▁방송국	-10675
▁요구했다	-10676
▁지나치게	-10677
my	-10678
지나	-10679
▁마츠	-10680
▁왜냐	-10681
▁죄를	-10682
▁총재	-10683
▁편리	-10684
원들은	-10685
▁먹이를	-10686
▁안드레	-10687
▁전두환	-10688
)(	-10689
▁토니	-10690
▁이루었다	-10691
▁추상	-10692
▁나타낼	-10693
ute	-10694
▁두루	-10695
▁실린	-10696
▁애덤	-10697
▁리비아	-10698
▁간부	-10699
▁시그	-10700
▁주류	-10701
마르크	-10702
▁것에서	-10703
▁On	-10704
▁거론	-10705
▁서경	-10706
우주연	-10707
정부의	-10708
진으로	-10709
▁다리를	-10710
▁승강장은	-10711
▁시절부터	-10712
▁학자들은	-10713
먼은	-10714
서야	-10715
▁격퇴	-10716
▁이노	-10717
▁회고	-10718
▁국가로	-10719
▁진행된다	-10720
▁cm	-10721
form	-10722
rist	-10723
▁나가노	-10724
▁자금을	-10725
▁생각한다	-10726
▁아제르바이잔	-10727
▁원내	-10728
▁알렸다	-10729
▁이에야	-10730
▁안티	-10731
▁전례	-10732
▁후일	-10733
ower	-10734
▁대회의	-10735
분석	-10736
희의	-10737
▁매사추세츠	-10738
여객	-10739
▁종결	-10740
▁후한	-10741
▁RNA	-10742
▁군대의	-10743
▁군수	-10744
▁내린	-10745
▁열고	-10746
▁이광	-10747
▁경험이	-10748
▁할리우	-10749
▁아버지와	-10750
▁지방에서	-10751
▁하나이며	-10752
▁봐	-10753
enn	-10754
▁석조	-10755
▁추출	-10756
▁도마뱀	-10757
▁with	-10758
보도	-10759
유는	-10760
지붕	-10761
풍을	-10762
(13	-10763
▁고발	-10764
편으로	-10765
▁둘러싸고	-10766
que	-10767
ult	-10768
▁상원	-10769
▁프랭크	-10770
大夫	-10771
전도	-10772
커는	-10773
▁향을	-10774
하겠다는	-10775
▁누적	-10776
하이오	-10777
▁받았으나	-10778
터널	-10779
▁직면	-10780
▁비용을	-10781
주쿠	-10782
▁개관	-10783
▁바닷	-10784
▁전념	-10785
▁2.0	-10786
LS	-10787
▁않았으나	-10788
▁흔한	-10789
▁유죄	-10790
▁나라에서	-10791
▁에스파냐	-10792
카트	-10793
▁신하	-10794
▁왕비	-10795
▁시스템이	-10796
▁실질적인	-10797
_9	-10798
무역	-10799
▁SP	-10800
▁공직	-10801
▁좌파	-10802
점이다	-10803
~1	-10804
니시	-10805
▁2)	-10806
rad	-10807
▁노비	-10808
▁병행	-10809
▁이화	-10810
원들이	-10811
▁대법원	-10812
▁퍼시픽	-10813
▁갇	-10814
▁닭	-10815
라디오	-10816
lack	-10817
rop	-10818
▁것보다	-10819
▁넣었다	-10820
학적으로	-10821
▁소속이다	-10822
▁계획에	-10823
▁규모는	-10824
▁시즌의	-10825
산성	-10826
▁군은	-10827
▁대승	-10828
▁봉사	-10829
▁하락	-10830
▁호세	-10831
▁효소	-10832
▁스파르타	-10833
▁바실	-10834
가들은	-10835
되지는	-10836
위원장	-10837
▁For	-10838
▁인물이	-10839
▁방법이다	-10840
▁학교에서	-10841
▁변경하였다	-10842
4,	-10843
▁""	-10844
▁98	-10845
▁광산	-10846
▁칭찬	-10847
▁페어	-10848
스트를	-10849
▁정신적	-10850
▁다니엘	-10851
▁만나게	-10852
자도	-10853
ene	-10854
▁선수들이	-10855
처리	-10856
▁들이	-10857
▁본사는	-10858
▁수록곡	-10859
▁국방부	-10860
▁1903	-10861
▁비잔티움	-10862
▁말기	-10863
!"	-10864
산면	-10865
▁먹고	-10866
▁서해	-10867
▁III	-10868
▁동로마	-10869
▁1899	-10870
▁쌓아	-10871
▁지혜	-10872
▁알코올	-10873
we	-10874
▁현저	-10875
▁존재하며	-10876
▁공채	-10877
▁관현악	-10878
▁의회는	-10879
▁날아	-10880
▁비단	-10881
▁화석	-10882
▁월드컵에서	-10883
보건	-10884
래스카	-10885
프라이	-10886
▁승인을	-10887
▁생각하고	-10888
Wh	-10889
ru	-10890
구성	-10891
▁서쪽에	-10892
▁참여하고	-10893
▁실려	-10894
느러	-10895
야가	-10896
음과	-10897
▁매달	-10898
▁대학을	-10899
▁장거리	-10900
▁제외하면	-10901
란히	-10902
▁61	-10903
▁서사	-10904
▁스쿨	-10905
▁오빠	-10906
▁나섰다	-10907
▁설명한다	-10908
생이	-10909
포는	-10910
▁상상	-10911
▁하마	-10912
▁중기의	-10913
▁했다는	-10914
▁닥터	-10915
▁여신	-10916
제국의	-10917
▁참여하여	-10918
▁권고	-10919
▁탈환	-10920
권에서	-10921
▁다룬다	-10922
▁활약한	-10923
▁신비	-10924
▁잭슨	-10925
▁평등	-10926
▁공사를	-10927
▁슬로베	-10928
Co	-10929
▁Ed	-10930
▁활발한	-10931
-12	-10932
▁나눌	-10933
▁여수	-10934
▁이론의	-10935
▁낼	-10936
ini	-10937
▁극히	-10938
▁수동	-10939
▁이반	-10940
▁출처	-10941
▁일컫는	-10942
▁성립한다	-10943
▁ST	-10944
▁단단	-10945
▁범위	-10946
▁별칭	-10947
▁산소	-10948
▁하얀	-10949
▁부적	-10950
.<	-10951
▁사기	-10952
▁시칠	-10953
달라고	-10954
해지는	-10955
▁민주화	-10956
▁이어진	-10957
▁근처에서	-10958
▁레바	-10959
▁해인	-10960
▁부족한	-10961
▁자본주의	-10962
구르	-10963
로니	-10964
식품	-10965
▁끝까지	-10966
▁충격을	-10967
좌상	-10968
▁kg	-10969
▁함유	-10970
항으로	-10971
▁화제가	-10972
실험	-10973
▁도착한	-10974
▁남아있는	-10975
▁데이터베이스	-10976
ual	-10977
▁진동	-10978
▁교수는	-10979
초를	-10980
▁시계	-10981
▁겪었다	-10982
▁지정된	-10983
쟁이	-10984
▁맞지	-10985
▁전도	-10986
▁마이너	-10987
▁상원의	-10988
▁인정하지	-10989
▁2,000	-10990
▁건설되었다	-10991
▁is	-10992
▁부천	-10993
강에서	-10994
행의	-10995
▁딸을	-10996
자이며	-10997
▁참고로	-10998
▁교수가	-10999
▁미만	-11000
▁번식	-11001
▁일도	-11002
▁제수	-11003
▁중소	-11004
▁힘입	-11005
▁곡이다	-11006
▁대학에	-11007
▁생겼다	-11008
▁이산화	-11009
고래	-11010
라기	-11011
▁물고	-11012
▁미노	-11013
▁향하는	-11014
셰비	-11015
작의	-11016
층을	-11017
▁길게	-11018
▁존중	-11019
결정	-11020
기동	-11021
pen	-11022
▁존재했던	-11023
▁면적	-11024
▁호평을	-11025
▁주장하고	-11026
가고	-11027
권도	-11028
ash	-11029
▁76	-11030
▁작센	-11031
▁기념물	-11032
7)	-11033
▁대피	-11034
▁좌표	-11035
▁기리기	-11036
▁Cent	-11037
▁여기에서	-11038
디언	-11039
▁루스	-11040
▁암시	-11041
▁의병	-11042
▁학위	-11043
거리는	-11044
화에서	-11045
▁드러나	-11046
oo	-11047
▁이끈	-11048
▁수도원	-11049
▁댐	-11050
브의	-11051
질로	-11052
▁무승	-11053
▁소닉	-11054
▁터뜨	-11055
론에서	-11056
▁이래로	-11057
증으로	-11058
▁찌	-11059
▁김포	-11060
▁복지	-11061
▁논문을	-11062
▁승리한	-11063
▁신호를	-11064
▁모으	-11065
▁단위로	-11066
▁음악의	-11067
▁조금씩	-11068
▁정부로부터	-11069
▁기차	-11070
▁결정적인	-11071
▁다카라즈카	-11072
-11	-11073
▁그날	-11074
▁통틀	-11075
▁확진	-11076
▁시설을	-11077
▁준비를	-11078
▁해상에서	-11079
▁Bl	-11080
▁궁극	-11081
가이자	-11082
▁맞추어	-11083
▁상반	-11084
▁아예	-11085
▁ISO	-11086
▁스미스	-11087
▁초반에	-11088
공주	-11089
▁깨닫	-11090
▁폐위	-11091
망이	-11092
신라	-11093
▁67	-11094
▁뻗어	-11095
▁영의	-11096
▁휴스턴	-11097
▁사라졌다	-11098
▁가톨릭교회	-11099
▁배구	-11100
▁안산	-11101
기독교	-11102
▁속으로	-11103
▁작위를	-11104
▁행성의	-11105
▁지적했다	-11106
GB	-11107
▁굿	-11108
길을	-11109
▁사천	-11110
▁기능은	-11111
려서	-11112
▁담긴	-11113
▁조달	-11114
이면서	-11115
베이니아	-11116
▁왜냐하면	-11117
하키	-11118
▁관장	-11119
▁신념	-11120
▁초등	-11121
약품	-11122
▁브뤼	-11123
▁생산하는	-11124
▁광주광역시	-11125
LA	-11126
▁거행	-11127
▁복제	-11128
▁최하	-11129
어요	-11130
열차	-11131
▁기름	-11132
▁시뮬	-11133
▁줄기	-11134
▁한계	-11135
▁후안	-11136
▁동쪽에	-11137
▁회사를	-11138
▁않았다고	-11139
▁블라디미르	-11140
보안	-11141
적이지	-11142
▁시장에	-11143
▁중에서는	-11144
운트	-11145
▁성취	-11146
▁중단되었다	-11147
▁꼴	-11148
▁워너	-11149
거리를	-11150
▁NBA	-11151
▁기반의	-11152
▁비판했다	-11153
itt	-11154
▁영남	-11155
▁노선의	-11156
▁사이드	-11157
▁에이스	-11158
▁일요일	-11159
▁거주하고	-11160
De	-11161
▁느껴	-11162
▁밑에서	-11163
▁얻는다	-11164
▁발매하였다	-11165
파이어	-11166
▁담당하고	-11167
스페	-11168
▁해밀	-11169
▁오렌지	-11170
▁사망하고	-11171
▁업그	-11172
▁육성	-11173
▁대한민국은	-11174
▁로즈	-11175
▁링컨	-11176
▁유형의	-11177
▁중의원	-11178
▁디자인을	-11179
▁않는다고	-11180
▁김수	-11181
채를	-11182
▁요크	-11183
▁중간에	-11184
▁시절에는	-11185
라이어	-11186
▁공화당	-11187
▁부대를	-11188
단위	-11189
ner	-11190
▁진짜	-11191
▁배웠다	-11192
▁유래한	-11193
▁전선	-11194
하였다가	-11195
왔으며	-11196
▁계속되었다	-11197
▁성공하였다	-11198
▁제주특별자치	-11199
▁로열	-11200
▁사이가	-11201
▁선거구	-11202
라브	-11203
▁시골	-11204
▁진정	-11205
▁엔진은	-11206
▁관리하고	-11207
오늘	-11208
ald	-11209
▁제갈	-11210
▁별다른	-11211
▁새겨져	-11212
가족	-11213
▁지폐	-11214
인들과	-11215
▁최근의	-11216
▁직선	-11217
▁국가는	-11218
▁바꾸어	-11219
▁전자기	-11220
▁운행한다	-11221
▁제안했다	-11222
▁도입되었다	-11223
려면	-11224
류이다	-11225
▁선보였다	-11226
▁킨	-11227
십자	-11228
▁글리	-11229
▁종은	-11230
▁최적	-11231
일에서	-11232
Re	-11233
▁톤	-11234
▁패키	-11235
mp	-11236
▁제안을	-11237
경과	-11238
▁야당	-11239
▁쫓아	-11240
▁펼쳤다	-11241
▁하드웨어	-11242
말라	-11243
씨와	-11244
톨레	-11245
▁레논	-11246
▁협의	-11247
▁전투기	-11248
▁DS	-11249
▁굉장	-11250
▁보지	-11251
▁주석	-11252
▁버전의	-11253
▁여름에	-11254
oph	-11255
▁존속	-11256
▁건물로	-11257
ank	-11258
▁마약	-11259
▁선수를	-11260
▁활동하는	-11261
놓은	-11262
란은	-11263
변이	-11264
▁숭배	-11265
▁밀접한	-11266
나스	-11267
(14	-11268
▁정사	-11269
▁경기에서는	-11270
▁톈	-11271
서도	-11272
▁NA	-11273
▁결코	-11274
▁기점으로	-11275
세종	-11276
▁특징이	-11277
그의	-11278
냈고	-11279
▁쓰였다	-11280
9)	-11281
미쓰	-11282
enti	-11283
▁십자가	-11284
▁런던에서	-11285
번에	-11286
통의	-11287
▁몸에	-11288
▁섬에	-11289
슬리	-11290
통이	-11291
▁동래	-11292
▁쇼와	-11293
▁시켜	-11294
▁채권	-11295
▁감정을	-11296
▁무기를	-11297
▁제목의	-11298
ink	-11299
▁레전드	-11300
▁야간	-11301
▁어휘	-11302
▁조명	-11303
▁기업이다	-11304
▁참여하는	-11305
멘트	-11306
▁빠진	-11307
철도의	-11308
▁대상을	-11309
▁라이언	-11310
▁스피드	-11311
▁다양하다	-11312
▁대회에서는	-11313
▁Go	-11314
▁결론	-11315
▁아벨	-11316
▁위임	-11317
▁•	-11318
하루	-11319
▁높고	-11320
소송법	-11321
▁웨일스	-11322
아일랜드	-11323
▁관리하는	-11324
▁구마모토	-11325
▁요미우리	-11326
과로	-11327
하임	-11328
▁오라	-11329
▁축하	-11330
▁분명히	-11331
▁참가하고	-11332
▁주를	-11333
▁허브	-11334
시키며	-11335
▁이사회	-11336
▁최후의	-11337
▁1)	-11338
▁이내	-11339
▁10%	-11340
위안	-11341
ler	-11342
▁96	-11343
▁사헌	-11344
▁일본을	-11345
La	-11346
평화	-11347
▁닛폰	-11348
▁상수	-11349
▁이빨	-11350
▁장학	-11351
▁진출을	-11352
▁케냐	-11353
▁표본	-11354
▁생각해	-11355
▁성균관	-11356
▁의미의	-11357
루션	-11358
▁억압	-11359
방에서	-11360
작이다	-11361
▁모델이	-11362
▁잃었다	-11363
▁페르디	-11364
▁마음이	-11365
▁유지하는	-11366
▁솟	-11367
대교	-11368
▁히데요	-11369
▁조문이다	-11370
▁기갑	-11371
▁샘플	-11372
▁설탕	-11373
▁고수	-11374
▁평면	-11375
렸으나	-11376
풍으로	-11377
▁자회사	-11378
봉을	-11379
▁명에	-11380
▁부호	-11381
▁기술의	-11382
▁쓰이고	-11383
▁사건이다	-11384
간이	-11385
놓고	-11386
파일	-11387
▁광장	-11388
층석탑	-11389
▁서식하는	-11390
▁평균자책	-11391
▁강이	-11392
▁안보	-11393
모와	-11394
황을	-11395
▁차원에서	-11396
)〉	-11397
였을	-11398
이시	-11399
ana	-11400
▁교회에	-11401
▁지식을	-11402
턴의	-11403
▁떠올	-11404
▁전제	-11405
▁자세한	-11406
▁PS	-11407
▁발트	-11408
▁표명	-11409
▁세계대	-11410
▁기록했고	-11411
선언	-11412
누스는	-11413
베르토	-11414
▁회사가	-11415
▁기록하는	-11416
▁자동으로	-11417
야를	-11418
정원	-11419
지능	-11420
▁공인	-11421
▁도주	-11422
▁영문	-11423
나라에	-11424
▁오프닝	-11425
▁운동은	-11426
▁페르난	-11427
년대의	-11428
▁블랙홀	-11429
▁있었을	-11430
▁최대한	-11431
▁허리케	-11432
▁친일인명	-11433
▁부사	-11434
▁순회	-11435
rans	-11436
▁덧붙여	-11437
▁환경을	-11438
▁69	-11439
▁재현	-11440
▁사회를	-11441
▁양식을	-11442
▁학생이	-11443
▁DC	-11444
▁간호	-11445
▁문장	-11446
▁피트	-11447
ife	-11448
▁발원	-11449
▁추격	-11450
▁두개골	-11451
▁북부의	-11452
분해	-11453
▁전압	-11454
▁감독과	-11455
▁시즌이	-11456
포가	-11457
▁느꼈	-11458
▁드문	-11459
▁데뷔를	-11460
▁직접적으로	-11461
▁매출	-11462
▁제사	-11463
▁부대는	-11464
▁스스로를	-11465
박한	-11466
▁엄격한	-11467
▁로이	-11468
▁불확	-11469
▁쇼트	-11470
▁넣고	-11471
▁디오	-11472
과정을	-11473
▁만나는	-11474
RT	-11475
덕션	-11476
▁관념	-11477
▁붙은	-11478
▁후궁	-11479
▁수도인	-11480
외선	-11481
▁놓은	-11482
▁종으로	-11483
▁최대풍속	-11484
▁크리스마스	-11485
▁사원	-11486
▁경찰은	-11487
르며	-11488
토르	-11489
▁거리는	-11490
▁북쪽의	-11491
도리	-11492
▁경부	-11493
▁손해	-11494
나갔다	-11495
ave	-11496
▁나쁜	-11497
▁담겨	-11498
▁도시가	-11499
▁시장을	-11500
▁조건이	-11501
▁팀에서	-11502
▁1897	-11503
▁설명하는	-11504
PC	-11505
미스	-11506
섬에	-11507
▁밀어	-11508
▁보일	-11509
면에는	-11510
▁보한다	-11511
▁출전한	-11512
▁대신하여	-11513
▁미터	-11514
FL	-11515
anc	-11516
▁찾아볼	-11517
▁시작하였고	-11518
▁로스앤젤레스에서	-11519
▁사사	-11520
▁총대	-11521
▁희귀	-11522
자들에	-11523
▁최상위	-11524
반에	-11525
▁마스	-11526
▁드러머	-11527
▁소속된	-11528
▁협주곡	-11529
▁포르투갈의	-11530
람쥐	-11531
oul	-11532
서기	-11533
지휘	-11534
▁가축	-11535
▁나눠	-11536
▁대관	-11537
▁두어	-11538
쳤으며	-11539
행으로	-11540
▁설치류의	-11541
▁아케이드	-11542
cc	-11543
브루	-11544
황제	-11545
▁PD	-11546
년동안	-11547
▁부유한	-11548
▁태도를	-11549
▁얻고	-11550
▁팀인	-11551
▁성우이다	-11552
고등학교를	-11553
▁엽	-11554
양은	-11555
▁임기	-11556
▁오하이오	-11557
▁협약	-11558
▁편입되었다	-11559
▁증후	-11560
▁축적	-11561
▁폭스	-11562
~5	-11563
▁Or	-11564
▁편곡	-11565
▁종이다	-11566
캐롤라이나	-11567
다르	-11568
일으	-11569
▁남해	-11570
▁사자	-11571
▁굉장히	-11572
▁와중에	-11573
▁의회의	-11574
▁직전에	-11575
▁획득한	-11576
▁선수이며	-11577
af	-11578
ail	-11579
▁사토	-11580
▁사이버	-11581
▁득표율을	-11582
▁일어나자	-11583
▁게이트	-11584
▁수술을	-11585
▁환경에서	-11586
채널	-11587
▁비오	-11588
▁탐지	-11589
▁위기를	-11590
기관으로	-11591
▁횟	-11592
각이	-11593
디나	-11594
▁김기	-11595
▁신임	-11596
▁그레고	-11597
바타	-11598
갔으며	-11599
▁앨범이다	-11600
▁셸	-11601
영어	-11602
▁게오	-11603
▁구릉	-11604
▁몰래	-11605
▁멋	-11606
▁개화	-11607
▁앉아	-11608
▁해주	-11609
▁아름다	-11610
▁업적을	-11611
▁봤	-11612
▁버려	-11613
▁부부	-11614
▁야쿠	-11615
▁주소	-11616
▁하더라도	-11617
▁아부	-11618
▁	-11619
이	-11620
다	-11621
.	-11622
에	-11623
의	-11624
는	-11625
로	-11626
,	-11627
하	-11628
1	-11629
을	-11630
가	-11631
지	-11632
고	-11633
서	-11634
한	-11635
은	-11636
0	-11637
기	-11638
2	-11639
으	-11640
)	-11641
(	-11642
사	-11643
리	-11644
시	-11645
대	-11646
스	-11647
년	-11648
를	-11649
인	-11650
도	-11651
아	-11652
일	-11653
9	-11654
자	-11655
어	-11656
라	-11657
수	-11658
있	-11659
나	-11660
부	-11661
그	-11662
전	-11663
되	-11664
정	-11665
국	-11666
과	-11667
해	-11668
었	-11669
주	-11670
제	-11671
들	-11672
e	-11673
3	-11674
성	-11675
구	-11676
장	-11677
적	-11678
했	-11679
여	-11680
상	-11681
a	-11682
동	-11683
5	-11684
월	-11685
8	-11686
와	-11687
위	-11688
4	-11689
원	-11690
트	-11691
o	-11692
게	-11693
선	-11694
마	-11695
공	-11696
였	-11697
6	-11698
드	-11699
보	-11700
만	-11701
7	-11702
중	-11703
며	-11704
i	-11705
r	-11706
조	-11707
화	-11708
우	-11709
미	-11710
경	-11711
소	-11712
유	-11713
세	-11714
비	-11715
n	-11716
학	-11717
교	-11718
오	-11719
르	-11720
신	-11721
치	-11722
명	-11723
개	-11724
문	-11725
연	-11726
t	-11727
계	-11728
역	-11729
후	-11730
된	-11731
회	-11732
"	-11733
면	-11734
관	-11735
것	-11736
영	-11737
진	-11738
모	-11739
터	-11740
등	-11741
용	-11742
발	-11743
프	-11744
l	-11745
음	-11746
군	-11747
작	-11748
러	-11749
당	-11750
타	-11751
s	-11752
무	-11753
니	-11754
산	-11755
m	-11756
재	-11757
레	-11758
방	-11759
단	-11760
데	-11761
거	-11762
민	-11763
카	-11764
반	-11765
통	-11766
간	-11767
분	-11768
바	-11769
생	-11770
크	-11771
포	-11772
체	-11773
안	-11774
차	-11775
행	-11776
내	-11777
u	-11778
노	-11779
현	-11780
호	-11781
식	-11782
운	-11783
본	-11784
할	-11785
파	-11786
출	-11787
물	-11788
'	-11789
요	-11790
남	-11791
종	-11792
양	-11793
때	-11794
S	-11795
임	-11796
속	-11797
두	-11798
야	-11799
실	-11800
-	-11801
c	-11802
토	-11803
함	-11804
던	-11805
C	-11806
A	-11807
결	-11808
루	-11809
설	-11810
형	-11811
코	-11812
표	-11813
키	-11814
강	-11815
히	-11816
려	-11817
h	-11818
각	-11819
d	-11820
디	-11821
독	-11822
초	-11823
배	-11824
법	-11825
태	-11826
업	-11827
승	-11828
까	-11829
건	-11830
래	-11831
직	-11832
버	-11833
매	-11834
입	-11835
록	-11836
불	-11837
또	-11838
합	-11839
력	-11840
점	-11841
피	-11842
른	-11843
번	-11844
예	-11845
최	-11846
않	-11847
같	-11848
았	-11849
받	-11850
약	-11851
베	-11852
티	-11853
T	-11854
메	-11855
M	-11856
권	-11857
브	-11858
《	-11859
》	-11860
더	-11861
천	-11862
감	-11863
말	-11864
B	-11865
알	-11866
심	-11867
판	-11868
왕	-11869
격	-11870
투	-11871
립	-11872
목	-11873
g	-11874
추	-11875
처	-11876
금	-11877
f	-11878
~	-11879
달	-11880
I	-11881
청	-11882
없	-11883
F	-11884
린	-11885
네	-11886
북	-11887
란	-11888
평	-11889
따	-11890
활	-11891
항	-11892
외	-11893
열	-11894
P	-11895
저	-11896
특	-11897
D	-11898
언	-11899
준	-11900
집	-11901
테	-11902
즈	-11903
p	-11904
편	-11905
복	-11906
석	-11907
y	-11908
·	-11909
k	-11910
향	-11911
변	-11912
류	-11913
질	-11914
근	-11915
병	-11916
E	-11917
광	-11918
령	-11919
족	-11920
페	-11921
름	-11922
난	-11923
랑	-11924
람	-11925
급	-11926
존	-11927
올	-11928
총	-11929
황	-11930
쪽	-11931
능	-11932
많	-11933
축	-11934
참	-11935
L	-11936
론	-11937
송	-11938
R	-11939
술	-11940
철	-11941
N	-11942
박	-11943
김	-11944
및	-11945
환	-11946
별	-11947
살	-11948
울	-11949
증	-11950
악	-11951
쿠	-11952
온	-11953
품	-11954
O	-11955
절	-11956
곡	-11957
플	-11958
G	-11959
료	-11960
:	-11961
창	-11962
육	-11963
b	-11964
백	-11965
망	-11966
K	-11967
새	-11968
졌	-11969
확	-11970
든	-11971
필	-11972
애	-11973
께	-11974
머	-11975
H	-11976
쓰	-11977
돌	-11978
량	-11979
순	-11980
케	-11981
글	-11982
져	-11983
탈	-11984
림	-11985
규	-11986
패	-11987
워	-11988
팀	-11989
색	-11990
V	-11991
범	-11992
클	-11993
극	-11994
련	-11995
날	-11996
째	-11997
견	-11998
너	-11999
쟁	-12000
탄	-12001
v	-12002
랜	-12003
친	-12004
막	-12005
삼	-12006
접	-12007
충	-12008
손	-12009
책	-12010
츠	-12011
션	-12012
/	-12013
봉	-12014
완	-12015
퍼	-12016
U	-12017
협	-12018
_	-12019
뒤	-12020
못	-12021
%	-12022
런	-12023
밀	-12024
담	-12025
골	-12026
블	-12027
채	-12028
길	-12029
W	-12030
엔	-12031
측	-12032
녀	-12033
취	-12034
슈	-12035
혼	-12036
누	-12037
습	-12038
험	-12039
럽	-12040
즌	-12041
슬	-12042
w	-12043
커	-12044
암	-12045
갈	-12046
곳	-12047
첫	-12048
뜻	-12049
귀	-12050
났	-12051
겨	-12052
칭	-12053
벌	-12054
찰	-12055
웨	-12056
높	-12057
앙	-12058
효	-12059
침	-12060
뉴	-12061
널	-12062
획	-12063
허	-12064
’	-12065
쳐	-12066
볼	-12067
씨	-12068
착	-12069
‘	-12070
응	-12071
센	-12072
죽	-12073
큰	-12074
락	-12075
득	-12076
례	-12077
징	-12078
폭	-12079
움	-12080
검	-12081
렸	-12082
잡	-12083
J	-12084
헌	-12085
농	-12086
희	-12087
논	-12088
캐	-12089
]	-12090
[	-12091
럼	-12092
틀	-12093
엘	-12094
걸	-12095
폴	-12096
퇴	-12097
섬	-12098
층	-12099
택	-12100
느	-12101
될	-12102
풍	-12103
홍	-12104
싱	-12105
폐	-12106
헤	-12107
왔	-12108
픽	-12109
앞	-12110
끝	-12111
촌	-12112
압	-12113
먼	-12114
줄	-12115
즉	-12116
율	-12117
좌	-12118
념	-12119
맞	-12120
>	-12121
킨	-12122
긴	-12123
찬	-12124
맡	-12125
덕	-12126
〈	-12127
〉	-12128
턴	-12129
<	-12130
혁	-12131
빌	-12132
늘	-12133
윤	-12134
링	-12135
슨	-12136
릭	-12137
염	-12138
델	-12139
램	-12140
익	-12141
잘	-12142
벨	-12143
억	-12144
빈	-12145
갖	-12146
텔	-12147
써	-12148
균	-12149
콘	-12150
얼	-12151
닌	-12152
묘	-12153
렌	-12154
몇	-12155
냈	-12156
칸	-12157
팔	-12158
엄	-12159
맹	-12160
궁	-12161
밝	-12162
쇼	-12163
앨	-12164
맥	-12165
훈	-12166
휘	-12167
컵	-12168
객	-12169
됐	-12170
칼	-12171
얻	-12172
흥	-12173
옥	-12174
숙	-12175
괴	-12176
갔	-12177
푸	-12178
콜	-12179
흐	-12180
넘	-12181
샤	-12182
뷔	-12183
“	-12184
”	-12185
좋	-12186
덴	-12187
X	-12188
므	-12189
템	-12190
몰	-12191
x	-12192
액	-12193
릴	-12194
z	-12195
떠	-12196
룹	-12197
률	-12198
빠	-12199
핵	-12200
찾	-12201
혹	-12202
둘	-12203
붙	-12204
낸	-12205
켰	-12206
몬	-12207
욕	-12208
혀	-12209
뿐	-12210
컴	-12211
굴	-12212
끌	-12213
힘	-12214
죄	-12215
잠	-12216
놓	-12217
Y	-12218
십	-12219
롯	-12220
떨	-12221
벤	-12222
척	-12223
탑	-12224
핀	-12225
싸	-12226
칙	-12227
벽	-12228
갑	-12229
먹	-12230
맨	-12231
략	-12232
졸	-12233
쥐	-12234
몸	-12235
눈	-12236
잉	-12237
녹	-12238
틴	-12239
컬	-12240
밴	-12241
잔	-12242
몽	-12243
렉	-12244
휴	-12245
풀	-12246
끼	-12247
춘	-12248
쳤	-12249
켜	-12250
뮤	-12251
곤	-12252
홈	-12253
칠	-12254
혈	-12255
폰	-12256
밖	-12257
렇	-12258
!	-12259
털	-12260
셀	-12261
뛰	-12262
앤	-12263
텐	-12264
륙	-12265
멸	-12266
솔	-12267
大	-12268
렀	-12269
탁	-12270
톤	-12271
겼	-12272
둥	-12273
혜	-12274
꾸	-12275
탕	-12276
홀	-12277
롤	-12278
돈	-12279
쿄	-12280
혔	-12281
낮	-12282
웠	-12283
딸	-12284
팅	-12285
랐	-12286
냐	-12287
컨	-12288
둔	-12289
」	-12290
「	-12291
넷	-12292
겸	-12293
님	-12294
윈	-12295
탐	-12296
랙	-12297
톨	-12298
촉	-12299
퓨	-12300
킬	-12301
욱	-12302
헨	-12303
?	-12304
펜	-12305
겠	-12306
떤	-12307
콩	-12308
튜	-12309
셔	-12310
낙	-12311
넓	-12312
멘	-12313
겐	-12314
덜	-12315
뇌	-12316
옹	-12317
융	-12318
흔	-12319
렬	-12320
킹	-12321
왜	-12322
젤	-12323
꽃	-12324
섭	-12325
슷	-12326
붕	-12327
=	-12328
놀	-12329
듬	-12330
읍	-12331
닝	-12332
깨	-12333
넣	-12334
金	-12335
헬	-12336
힌	-12337
옮	-12338
롭	-12339
빛	-12340
윌	-12341
쇄	-12342
山	-12343
땅	-12344
젠	-12345
곧	-12346
답	-12347
멤	-12348
딩	-12349
쉬	-12350
룬	-12351
팬	-12352
듀	-12353
흑	-12354
쌍	-12355
큐	-12356
켓	-12357
챔	-12358
즘	-12359
닉	-12360
룡	-12361
짓	-12362
李	-12363
튼	-12364
뢰	-12365
값	-12366
렵	-12367
흡	-12368
學	-12369
밤	-12370
Z	-12371
옛	-12372
랫	-12373
j	-12374
웅	-12375
닥	-12376
랭	-12377
젝	-12378
멜	-12379
릉	-12380
펠	-12381
빙	-12382
ᆞ	-12383
납	-12384
맺	-12385
&	-12386
궤	-12387
웃	-12388
짜	-12389
씩	-12390
깊	-12391
쉽	-12392
롱	-12393
숨	-12394
틱	-12395
섯	-12396
캠	-12397
+	-12398
잃	-12399
듯	-12400
』	-12401
『	-12402
멀	-12403
핑	-12404
밍	-12405
웹	-12406
셰	-12407
뷰	-12408
꼬	-12409
믿	-12410
즐	-12411
잇	-12412
숭	-12413
쓴	-12414
끄	-12415
찍	-12416
뜨	-12417
텍	-12418
;	-12419
Q	-12420
中	-12421
큼	-12422
文	-12423
짐	-12424
빅	-12425
王	-12426
州	-12427
틸	-12428
폼	-12429
덤	-12430
빨	-12431
國	-12432
돼	-12433
짧	-12434
멕	-12435
펼	-12436
롬	-12437
엽	-12438
잎	-12439
쇠	-12440
뀌	-12441
딘	-12442
힐	-12443
켄	-12444
곱	-12445
삭	-12446
럭	-12447
q	-12448
子	-12449
켈	-12450
튀	-12451
럴	-12452
캘	-12453
랍	-12454
릿	-12455
혐	-12456
첨	-12457
겪	-12458
촬	-12459
닐	-12460
삶	-12461
썼	-12462
|	-12463
랄	-12464
낭	-12465
얀	-12466
콤	-12467
–	-12468
컷	-12469
싶	-12470
벗	-12471
밑	-12472
믹	-12473
됨	-12474
헝	-12475
낳	-12476
東	-12477
옆	-12478
城	-12479
三	-12480
젊	-12481
냥	-12482
꿈	-12483
톱	-12484
흘	-12485
人	-12486
곽	-12487
첩	-12488
셜	-12489
쌓	-12490
校	-12491
엑	-12492
道	-12493
읽	-12494
왼	-12495
옷	-12496
룩	-12497
安	-12498
듣	-12499
빼	-12500
뉘	-12501
퀴	-12502
닛	-12503
냉	-12504
氏	-12505
°	-12506
南	-12507
高	-12508
잭	-12509
샌	-12510
벡	-12511
픈	-12512
뒷	-12513
엇	-12514
븐	-12515
天	-12516
봄	-12517
公	-12518
숲	-12519
흰	-12520
씬	-12521
뱅	-12522
띠	-12523
낼	-12524
섰	-12525
셋	-12526
뼈	-12527
쿨	-12528
슴	-12529
캄	-12530
事	-12531
넬	-12532
平	-12533
뤼	-12534
法	-12535
괄	-12536
묵	-12537
끊	-12538
벼	-12539
덮	-12540
댄	-12541
팽	-12542
寺	-12543
・	-12544
書	-12545
앗	-12546
좀	-12547
뿌	-12548
뤄	-12549
떻	-12550
붉	-12551
첼	-12552
뱀	-12553
둑	-12554
맛	-12555
숫	-12556
宗	-12557
é	-12558
川	-12559
톰	-12560
軍	-12561
샘	-12562
팩	-12563
훨	-12564
一	-12565
묻	-12566
찌	-12567
元	-12568
웰	-12569
正	-12570
義	-12571
륜	-12572
짝	-12573
캔	-12574
앵	-12575
춤	-12576
렐	-12577
렴	-12578
쓸	-12579
녕	-12580
엠	-12581
밥	-12582
덩	-12583
늄	-12584
셈	-12585
늬	-12586
院	-12587
탱	-12588
봇	-12589
팝	-12590
長	-12591
쫓	-12592
겔	-12593
꺼	-12594
쾌	-12595
府	-12596
꼽	-12597
닫	-12598
흉	-12599
늦	-12600
깔	-12601
明	-12602
∼	-12603
렘	-12604
룸	-12605
횡	-12606
成	-12607
海	-12608
石	-12609
멍	-12610
꼭	-12611
랩	-12612
끈	-12613
륨	-12614
뽑	-12615
앉	-12616
딜	-12617
옌	-12618
끔	-12619
上	-12620
좁	-12621
太	-12622
西	-12623
퀘	-12624
갤	-12625
陽	-12626
펙	-12627
룰	-12628
田	-12629
훗	-12630
君	-12631
춰	-12632
꾼	-12633
햄	-12634
光	-12635
原	-12636
行	-12637
뚜	-12638
家	-12639
깃	-12640
地	-12641
긍	-12642
使	-12643
會	-12644
툰	-12645
德	-12646
北	-12647
륭	-12648
첸	-12649
本	-12650
윗	-12651
빗	-12652
郡	-12653
뮌	-12654
탠	-12655
武	-12656
部	-12657
덧	-12658
日	-12659
딕	-12660
世	-12661
퀸	-12662
新	-12663
꺾	-12664
神	-12665
슐	-12666
村	-12667
삽	-12668
넨	-12669
셉	-12670
쿼	-12671
主	-12672
킴	-12673
홋	-12674
水	-12675
都	-12676
듭	-12677
門	-12678
싼	-12679
生	-12680
а	-12681
윙	-12682
궐	-12683
펴	-12684
쌀	-12685
렛	-12686
펄	-12687
펑	-12688
韓	-12689
섞	-12690
녔	-12691
묶	-12692
經	-12693
政	-12694
겹	-12695
훌	-12696
仁	-12697
等	-12698
눌	-12699
녁	-12700
縣	-12701
꼴	-12702
돔	-12703
섹	-12704
낌	-12705
無	-12706
깥	-12707
띄	-12708
넌	-12709
엉	-12710
뉜	-12711
官	-12712
之	-12713
펀	-12714
司	-12715
돕	-12716
龍	-12717
×	-12718
뿔	-12719
곰	-12720
넥	-12721
툴	-12722
里	-12723
不	-12724
뇨	-12725
핸	-12726
朴	-12727
*	-12728
갱	-12729
랴	-12730
밭	-12731
똑	-12732
콰	-12733
빵	-12734
の	-12735
興	-12736
턱	-12737
깝	-12738
理	-12739
톡	-12740
和	-12741
趙	-12742
所	-12743
相	-12744
딱	-12745
о	-12746
江	-12747
힙	-12748
洞	-12749
굽	-12750
닷	-12751
틈	-12752
콧	-12753
忠	-12754
옵	-12755
훼	-12756
셸	-12757
民	-12758
皇	-12759
史	-12760
聖	-12761
늑	-12762
五	-12763
夫	-12764
永	-12765
죠	-12766
팡	-12767
臣	-12768
白	-12769
馬	-12770
и	-12771
漢	-12772
敎	-12773
콕	-12774
핫	-12775
記	-12776
林	-12777
컫	-12778
朝	-12779
닭	-12780
굳	-12781
킷	-12782
有	-12783
콥	-12784
흙	-12785
張	-12786
뮬	-12787
겁	-12788
慶	-12789
빚	-12790
ᄒ	-12791
鄭	-12792
멈	-12793
島	-12794
帝	-12795
定	-12796
맷	-12797
껍	-12798
心	-12799
풋	-12800
小	-12801
性	-12802
全	-12803
善	-12804
룽	-12805
→	-12806
밸	-12807
化	-12808
킥	-12809
캡	-12810
知	-12811
羅	-12812
將	-12813
쏘	-12814
昌	-12815
前	-12816
士	-12817
럿	-12818
宮	-12819
뻗	-12820
下	-12821
겉	-12822
京	-12823
탓	-12824
尹	-12825
河	-12826
벳	-12827
方	-12828
堂	-12829
떼	-12830
十	-12831
딴	-12832
봐	-12833
α	-12834
왈	-12835
н	-12836
時	-12837
푼	-12838
佛	-12839
古	-12840
松	-12841
面	-12842
崔	-12843
社	-12844
홉	-12845
굿	-12846
代	-12847
렷	-12848
同	-12849
퉁	-12850
샹	-12851
四	-12852
앱	-12853
通	-12854
二	-12855
信	-12856
꿀	-12857
淸	-12858
쁜	-12859
≫	-12860
≪	-12861
師	-12862
닮	-12863
後	-12864
年	-12865
禮	-12866
눅	-12867
릎	-12868
쯤	-12869
툼	-12870
뚫	-12871
붓	-12872
論	-12873
닿	-12874
엣	-12875
듈	-12876
샬	-12877
싫	-12878
е	-12879
굉	-12880
八	-12881
華	-12882
守	-12883
줬	-12884
쑤	-12885
木	-12886
칩	-12887
놈	-12888
樂	-12889
댐	-12890
셨	-12891
띤	-12892
孝	-12893
릇	-12894
物	-12895
像	-12896
祖	-12897
•	-12898
女	-12899
쉐	-12900
字	-12901
р	-12902
쿤	-12903
헐	-12904
劉	-12905
낀	-12906
슘	-12907
쩌	-12908
갓	-12909
月	-12910
걷	-12911
合	-12912
市	-12913
重	-12914
쥬	-12915
젖	-12916
吉	-12917
냄	-12918
權	-12919
內	-12920
立	-12921
圖	-12922
名	-12923
黃	-12924
尙	-12925
、	-12926
팜	-12927
分	-12928
集	-12929
옴	-12930
펌	-12931
걱	-12932
基	-12933
孫	-12934
自	-12935
洪	-12936
낱	-12937
寧	-12938
雲	-12939
陵	-12940
둠	-12941
者	-12942
퐁	-12943
삿	-12944
솜	-12945
잊	-12946
ü	-12947
業	-12948
á	-12949
兵	-12950
곁	-12951
핍	-12952
鎭	-12953
廣	-12954
봤	-12955
흠	-12956
솟	-12957
얇	-12958
科	-12959
렁	-12960
$	-12961
判	-12962
體	-12963
侯	-12964
驛	-12965
殿	-12966
#	-12967
衛	-12968
덟	-12969
九	-12970
路	-12971
順	-12972
흩	-12973
春	-12974
建	-12975
휠	-12976
멋	-12977
껴	-12978
쏟	-12979
野	-12980
谷	-12981
얄	-12982
밟	-12983
챌	-12984
六	-12985
с	-12986
功	-12987
柳	-12988
ー	-12989
톈	-12990
周	-12991
짙	-12992
긋	-12993
監	-12994
靑	-12995
웬	-12996
承	-12997
옐	-12998
美	-12999
的	-13000
国	-13001
돋	-13002
福	-13003
直	-13004
議	-13005
탤	-13006
덱	-13007
휩	-13008
쯔	-13009
굵	-13010
見	-13011
制	-13012
※	-13013
뚝	-13014
花	-13015
動	-13016
컸	-13017
宋	-13018
度	-13019
景	-13020
훔	-13021
쁘	-13022
얘	-13023
꾀	-13024
왓	-13025
曹	-13026
꿔	-13027
郞	-13028
떡	-13029
派	-13030
觀	-13031
뭉	-13032
源	-13033
町	-13034
텀	-13035
英	-13036
館	-13037
宣	-13038
萬	-13039
끓	-13040
治	-13041
к	-13042
맵	-13043
左	-13044
身	-13045
節	-13046
륵	-13047
星	-13048
캉	-13049
貞	-13050
外	-13051
眞	-13052
章	-13053
い	-13054
御	-13055
펫	-13056
벵	-13057
玉	-13058
利	-13059
л	-13060
侍	-13061
в	-13062
根	-13063
뀐	-13064
音	-13065
т	-13066
햇	-13067
康	-13068
號	-13069
濟	-13070
令	-13071
泰	-13072
슭	-13073
親	-13074
댓	-13075
짱	-13076
ö	-13077
꽤	-13078
픔	-13079
傳	-13080
썬	-13081
開	-13082
副	-13083
初	-13084
싯	-13085
앓	-13086
씀	-13087
典	-13088
맘	-13089
○	-13090
式	-13091
샨	-13092
횟	-13093
梁	-13094
{	-13095
命	-13096
잦	-13097
造	-13098
說	-13099
寶	-13100
壽	-13101
붐	-13102
벅	-13103
語	-13104
꼈	-13105
奉	-13106
后	-13107
吳	-13108
別	-13109
思	-13110
밋	-13111
줌	-13112
臺	-13113
應	-13114
良	-13115
엥	-13116
土	-13117
갇	-13118
族	-13119
實	-13120
鮮	-13121
憲	-13122
戰	-13123
保	-13124
阿	-13125
唐	-13126
츄	-13127
修	-13128
在	-13129
빔	-13130
浦	-13131
헥	-13132
촨	-13133
津	-13134
省	-13135
色	-13136
뒀	-13137
弘	-13138
智	-13139
엿	-13140
賢	-13141
進	-13142
ン	-13143
言	-13144
멧	-13145
歌	-13146
ó	-13147
ᆯ	-13148
申	-13149
팟	-13150
錄	-13151
딪	-13152
井	-13153
눠	-13154
作	-13155
形	-13156
空	-13157
老	-13158
敬	-13159
來	-13160
ᆡ	-13161
位	-13162
工	-13163
詩	-13164
先	-13165
如	-13166
ο	-13167
右	-13168
流	-13169
괘	-13170
多	-13171
ä	-13172
七	-13173
몫	-13174
줘	-13175
í	-13176
낫	-13177
界	-13178
間	-13179
셴	-13180
用	-13181
陳	-13182
`	-13183
깎	-13184
風	-13185
常	-13186
깐	-13187
ᄃ	-13188
맑	-13189
運	-13190
ا	-13191
닦	-13192
ᆫ	-13193
얹	-13194
팍	-13195
線	-13196
塔	-13197
μ	-13198
ā	-13199
延	-13200
參	-13201
場	-13202
秀	-13203
얽	-13204
藤	-13205
찔	-13206
護	-13207
캅	-13208
志	-13209
텝	-13210
徐	-13211
걀	-13212
口	-13213
랏	-13214
數	-13215
齋	-13216
맏	-13217
ᄂ	-13218
溪	-13219
끗	-13220
碑	-13221
出	-13222
옳	-13223
玄	-13224
귄	-13225
곶	-13226
쭉	-13227
찐	-13228
땄	-13229
뻔	-13230
達	-13231
甲	-13232
朱	-13233
郎	-13234
씌	-13235
앰	-13236
藏	-13237
反	-13238
슛	-13239
윅	-13240
楊	-13241
任	-13242
頭	-13243
뭇	-13244
密	-13245
佐	-13246
。	-13247
펩	-13248
촐	-13249
對	-13250
解	-13251
뱃	-13252
튬	-13253
愛	-13254
팰	-13255
鳳	-13256
볍	-13257
얕	-13258
쾰	-13259
땃	-13260
百	-13261
亭	-13262
車	-13263
뚱	-13264
統	-13265
ν	-13266
렝	-13267
찮	-13268
園	-13269
}	-13270
핏	-13271
印	-13272
냅	-13273
儀	-13274
ς	-13275
沈	-13276
쟈	-13277
챙	-13278
第	-13279
β	-13280
궈	-13281
넛	-13282
ᄅ	-13283
員	-13284
뭄	-13285
湖	-13286
し	-13287
伯	-13288
熙	-13289
錫	-13290
뻐	-13291
嘉	-13292
靈	-13293
낚	-13294
草	-13295
務	-13296
現	-13297
察	-13298
禪	-13299
섀	-13300
勝	-13301
욘	-13302
器	-13303
氣	-13304
豊	-13305
千	-13306
諸	-13307
뫼	-13308
團	-13309
意	-13310
엮	-13311
麗	-13312
夏	-13313
캣	-13314
榮	-13315
識	-13316
삐	-13317
烈	-13318
헛	-13319
關	-13320
伊	-13321
姜	-13322
橋	-13323
뮈	-13324
뾰	-13325
非	-13326
從	-13327
탬	-13328
쉴	-13329
쩔	-13330
ι	-13331
■	-13332
許	-13333
샐	-13334
랬	-13335
居	-13336
鄕	-13337
容	-13338
加	-13339
쾨	-13340
싹	-13341
祭	-13342
꿨	-13343
能	-13344
딥	-13345
力	-13346
뜬	-13347
믈	-13348
숀	-13349
딧	-13350
鐵	-13351
귤	-13352
遺	-13353
母	-13354
火	-13355
商	-13356
益	-13357
뤘	-13358
―	-13359
竹	-13360
遠	-13361
異	-13362
機	-13363
管	-13364
次	-13365
푹	-13366
起	-13367
植	-13368
領	-13369
훙	-13370
낄	-13371
ρ	-13372
處	-13373
у	-13374
恩	-13375
돗	-13376
墓	-13377
晉	-13378
可	-13379
ᄀ	-13380
д	-13381
報	-13382
黨	-13383
웍	-13384
雄	-13385
ん	-13386
泉	-13387
렙	-13388
坐	-13389
調	-13390
깜	-13391
支	-13392
受	-13393
室	-13394
샀	-13395
싣	-13396
췌	-13397
쿡	-13398
我	-13399
췄	-13400
갯	-13401
챈	-13402
想	-13403
쵸	-13404
м	-13405
柱	-13406
沙	-13407
資	-13408
な	-13409
術	-13410
岩	-13411
τ	-13412
得	-13413
う	-13414
丁	-13415
畵	-13416
댈	-13417
秦	-13418
惠	-13419
父	-13420
魏	-13421
昭	-13422
目	-13423
品	-13424
쁨	-13425
늙	-13426
類	-13427
富	-13428
始	-13429
뮐	-13430
녜	-13431
눔	-13432
й	-13433
以	-13434
果	-13435
宇	-13436
秋	-13437
池	-13438
故	-13439
껏	-13440
퓌	-13441
か	-13442
紀	-13443
俊	-13444
波	-13445
큘	-13446
갚	-13447
꽂	-13448
營	-13449
男	-13450
少	-13451
늪	-13452
局	-13453
總	-13454
잼	-13455
탭	-13456
鍾	-13457
提	-13458
겟	-13459
ε	-13460
崇	-13461
슌	-13462
交	-13463
姓	-13464
즙	-13465
찢	-13466
è	-13467
爲	-13468
쿰	-13469
系	-13470
入	-13471
曲	-13472
試	-13473
몹	-13474
@	-13475
卿	-13476
咸	-13477
手	-13478
퀼	-13479
学	-13480
妃	-13481
齊	-13482
舍	-13483
깁	-13484
廳	-13485
뜸	-13486
λ	-13487
쪼	-13488
숍	-13489
育	-13490
썩	-13491
샵	-13492
香	-13493
맬	-13494
−	-13495
盧	-13496
볶	-13497
と	-13498
괌	-13499
넉	-13500
ᄋ	-13501
펭	-13502
魚	-13503
릅	-13504
因	-13505
角	-13506
꽝	-13507
ら	-13508
짖	-13509
産	-13510
表	-13511
發	-13512
△	-13513
瑞	-13514
農	-13515
吏	-13516
た	-13517
情	-13518
짚	-13519
共	-13520
»	-13521
뇽	-13522
尊	-13523
듐	-13524
仲	-13525
防	-13526
룻	-13527
尉	-13528
房	-13529
씻	-13530
퀄	-13531
ス	-13532
彦	-13533
薩	-13534
뜰	-13535
츰	-13536
戶	-13537
群	-13538
ل	-13539
굶	-13540
致	-13541
首	-13542
圓	-13543
恭	-13544
極	-13545
蘇	-13546
陸	-13547
엎	-13548
電	-13549
博	-13550
慧	-13551
뭐	-13552
€	-13553
엡	-13554
り	-13555
顯	-13556
象	-13557
샴	-13558
뵈	-13559
倉	-13560
σ	-13561
샷	-13562
☆	-13563
半	-13564
結	-13565
촛	-13566
貴	-13567
빽	-13568
뿜	-13569
훤	-13570
仙	-13571
署	-13572
젯	-13573
陰	-13574
쩐	-13575
—	-13576
イ	-13577
連	-13578
閣	-13579
る	-13580
久	-13581
뇰	-13582
覺	-13583
핼	-13584
虎	-13585
촘	-13586
庵	-13587
邑	-13588
썰	-13589
樞	-13590
켐	-13591
協	-13592
峰	-13593
區	-13594
友	-13595
ル	-13596
溫	-13597
菩	-13598
靖	-13599
變	-13600
内	-13601
퀀	-13602
탔	-13603
淑	-13604
獻	-13605
蓮	-13606
巖	-13607
死	-13608
밧	-13609
牧	-13610
素	-13611
足	-13612
뜯	-13613
邊	-13614
台	-13615
普	-13616
喜	-13617
域	-13618
完	-13619
롄	-13620
팥	-13621
屬	-13622
嚴	-13623
«	-13624
銀	-13625
\	-13626
丹	-13627
越	-13628
板	-13629
呂	-13630
괜	-13631
쑨	-13632
ᄉ	-13633
哲	-13634
г	-13635
督	-13636
튠	-13637
範	-13638
윽	-13639
팻	-13640
밈	-13641
욤	-13642
に	-13643
職	-13644
陀	-13645
멩	-13646
隆	-13647
律	-13648
贊	-13649
船	-13650
赤	-13651
똥	-13652
乙	-13653
近	-13654
港	-13655
벚	-13656
츨	-13657
翼	-13658
衆	-13659
둡	-13660
슝	-13661
퓰	-13662
땀	-13663
勳	-13664
꿰	-13665
잣	-13666
蔡	-13667
燕	-13668
킵	-13669
쥘	-13670
種	-13671
껑	-13672
ラ	-13673
僧	-13674
復	-13675
舊	-13676
κ	-13677
낯	-13678
而	-13679
衣	-13680
珍	-13681
載	-13682
깅	-13683
具	-13684
ま	-13685
淵	-13686
鶴	-13687
낡	-13688
臨	-13689
特	-13690
●	-13691
壇	-13692
球	-13693
輔	-13694
쥔	-13695
至	-13696
～	-13697
精	-13698
藝	-13699
둬	-13700
訓	-13701
岡	-13702
今	-13703
뽀	-13704
莊	-13705
則	-13706
境	-13707
벙	-13708
祠	-13709
郭	-13710
き	-13711
奇	-13712
葉	-13713
兒	-13714
淳	-13715
쉰	-13716
要	-13717
養	-13718
毛	-13719
꼼	-13720
層	-13721
質	-13722
댕	-13723
彌	-13724
斗	-13725
텅	-13726
썸	-13727
也	-13728
뎀	-13729
純	-13730
禁	-13731
若	-13732
住	-13733
淨	-13734
γ	-13735
洋	-13736
딤	-13737
젓	-13738
盛	-13739
允	-13740
均	-13741
蘭	-13742
澤	-13743
私	-13744
′	-13745
は	-13746
リ	-13747
聲	-13748
念	-13749
π	-13750
ト	-13751
轉	-13752
魯	-13753
±	-13754
旨	-13755
惡	-13756
期	-13757
閔	-13758
座	-13759
戦	-13760
然	-13761
좡	-13762
팎	-13763
其	-13764
儒	-13765
刑	-13766
劇	-13767
牛	-13768
廟	-13769
食	-13770
誠	-13771
랠	-13772
舞	-13773
亞	-13774
備	-13775
헴	-13776
я	-13777
煥	-13778
那	-13779
会	-13780
왁	-13781
雨	-13782
お	-13783
龜	-13784
取	-13785
띈	-13786
條	-13787
布	-13788
ß	-13789
執	-13790
洙	-13791
浩	-13792
射	-13793
慈	-13794
챠	-13795
隊	-13796
賀	-13797
料	-13798
放	-13799
醫	-13800
쑹	-13801
獨	-13802
隨	-13803
列	-13804
量	-13805
問	-13806
孔	-13807
젬	-13808
丘	-13809
聞	-13810
멱	-13811
兼	-13812
麻	-13813
狀	-13814
址	-13815
警	-13816
ᇰ	-13817
清	-13818
隱	-13819
웜	-13820
靜	-13821
쏠	-13822
持	-13823
칫	-13824
補	-13825
奎	-13826
聯	-13827
훅	-13828
く	-13829
С	-13830
考	-13831
藩	-13832
屋	-13833
쏜	-13834
向	-13835
茂	-13836
넴	-13837
胡	-13838
뱌	-13839
캇	-13840
綱	-13841
製	-13842
à	-13843
冠	-13844
쐐	-13845
緣	-13846
計	-13847
比	-13848
윔	-13849
ク	-13850
尾	-13851
嶺	-13852
ᄆ	-13853
好	-13854
쿵	-13855
未	-13856
鏡	-13857
뭔	-13858
ッ	-13859
助	-13860
欲	-13861
點	-13862
岳	-13863
桂	-13864
改	-13865
由	-13866
帶	-13867
肅	-13868
穆	-13869
얌	-13870
檢	-13871
約	-13872
苦	-13873
希	-13874
祿	-13875
謙	-13876
委	-13877
封	-13878
羽	-13879
さ	-13880
É	-13881
孟	-13882
洛	-13883
짠	-13884
譜	-13885
雙	-13886
х	-13887
条	-13888
細	-13889
于	-13890
剛	-13891
格	-13892
件	-13893
寅	-13894
於	-13895
離	-13896
餘	-13897
ç	-13898
夢	-13899
퍽	-13900
ᆷ	-13901
亂	-13902
望	-13903
末	-13904
몄	-13905
飛	-13906
솥	-13907
客	-13908
徳	-13909
藥	-13910
갸	-13911
앳	-13912
캥	-13913
求	-13914
ن	-13915
型	-13916
端	-13917
釋	-13918
錦	-13919
單	-13920
엌	-13921
ī	-13922
樹	-13923
服	-13924
留	-13925
兩	-13926
觸	-13927
쨌	-13928
弼	-13929
戒	-13930
銅	-13931
廷	-13932
꽁	-13933
칵	-13934
돛	-13935
て	-13936
克	-13937
圭	-13938
役	-13939
易	-13940
究	-13941
己	-13942
夷	-13943
ь	-13944
덥	-13945
敏	-13946
汝	-13947
辰	-13948
δ	-13949
酒	-13950
珠	-13951
紅	-13952
ア	-13953
ы	-13954
準	-13955
甫	-13956
丞	-13957
祥	-13958
鳥	-13959
핌	-13960
놉	-13961
‧	-13962
亨	-13963
宰	-13964
杜	-13965
辛	-13966
깡	-13967
و	-13968
回	-13969
威	-13970
烏	-13971
技	-13972
晋	-13973
環	-13974
댁	-13975
あ	-13976
ᅵ	-13977
黑	-13978
욜	-13979
梅	-13980
찻	-13981
恒	-13982
旗	-13983
눕	-13984
み	-13985
惱	-13986
룀	-13987
指	-13988
財	-13989
폈	-13990
裵	-13991
ر	-13992
叔	-13993
眼	-13994
뎅	-13995
â	-13996
つ	-13997
翰	-13998
茶	-13999
η	-14000
證	-14001
摩	-14002
樓	-14003
講	-14004
尼	-14005
滿	-14006
曰	-14007
툭	-14008
ي	-14009
ú	-14010
ч	-14011
卷	-14012
影	-14013
遊	-14014
僉	-14015
誌	-14016
厚	-14017
ち	-14018
鉉	-14019
宅	-14020
쩍	-14021
б	-14022
摠	-14023
選	-14024
뺏	-14025
啓	-14026
乘	-14027
乾	-14028
庫	-14029
葛	-14030
먀	-14031
ᄌ	-14032
題	-14033
宜	-14034
曺	-14035
諫	-14036
筆	-14037
넙	-14038
斷	-14039
麟	-14040
略	-14041
骨	-14042
雅	-14043
잖	-14044
滅	-14045
盟	-14046
騎	-14047
区	-14048
散	-14049
뛴	-14050
話	-14051
タ	-14052
弟	-14053
病	-14054
쉘	-14055
懿	-14056
衡	-14057
句	-14058
こ	-14059
輪	-14060
歸	-14061
^	-14062
م	-14063
콴	-14064
シ	-14065
妙	-14066
慕	-14067
釜	-14068
丙	-14069
假	-14070
籍	-14071
丸	-14072
登	-14073
簡	-14074
邪	-14075
쑥	-14076
設	-14077
增	-14078
캬	-14079
힉	-14080
愼	-14081
祐	-14082
敦	-14083
秉	-14084
繼	-14085
늠	-14086
遼	-14087
般	-14088
팁	-14089
だ	-14090
県	-14091
裕	-14092
革	-14093
昇	-14094
最	-14095
갠	-14096
š	-14097
俗	-14098
뮴	-14099
£	-14100
征	-14101
桓	-14102
爾	-14103
巨	-14104
速	-14105
休	-14106
夜	-14107
炳	-14108
固	-14109
積	-14110
軒	-14111
倭	-14112
演	-14113
續	-14114
雜	-14115
雪	-14116
擧	-14117
襄	-14118
健	-14119
煩	-14120
刺	-14121
邱	-14122
옅	-14123
央	-14124
與	-14125
鎬	-14126
坊	-14127
銘	-14128
옙	-14129
θ	-14130
も	-14131
庭	-14132
硏	-14133
뺨	-14134
́	-14135
曆	-14136
難	-14137
季	-14138
罪	-14139
웁	-14140
禹	-14141
땐	-14142
が	-14143
版	-14144
童	-14145
岐	-14146
됩	-14147
策	-14148
超	-14149
震	-14150
Δ	-14151
읊	-14152
п	-14153
⁄	-14154
扶	-14155
深	-14156
過	-14157
を	-14158
紙	-14159
戸	-14160
ñ	-14161
す	-14162
賜	-14163
숄	-14164
썹	-14165
よ	-14166
峴	-14167
庶	-14168
株	-14169
願	-14170
崎	-14171
感	-14172
寬	-14173
廉	-14174
翁	-14175
뎌	-14176
ί	-14177
洲	-14178
ᄇ	-14179
뺀	-14180
勢	-14181
欽	-14182
注	-14183
볕	-14184
з	-14185
契	-14186
皮	-14187
蒙	-14188
貪	-14189
쭈	-14190
送	-14191
依	-14192
뀔	-14193
ω	-14194
ド	-14195
勞	-14196
★	-14197
簿	-14198
懷	-14199
振	-14200
刻	-14201
再	-14202
切	-14203
쉼	-14204
際	-14205
딛	-14206
ά	-14207
υ	-14208
詞	-14209
넵	-14210
旌	-14211
僕	-14212
兄	-14213
샛	-14214
씹	-14215
納	-14216
К	-14217
邦	-14218
推	-14219
失	-14220
姬	-14221
琴	-14222
吾	-14223
組	-14224
れ	-14225
何	-14226
程	-14227
鑑	-14228
惟	-14229
消	-14230
賓	-14231
꿇	-14232
닙	-14233
팸	-14234
カ	-14235
紫	-14236
뛸	-14237
マ	-14238
是	-14239
燮	-14240
퀵	-14241
봅	-14242
ό	-14243
А	-14244
斯	-14245
꼰	-14246
홑	-14247
序	-14248
當	-14249
卞	-14250
寫	-14251
甘	-14252
贈	-14253
才	-14254
쇤	-14255
介	-14256
徒	-14257
텃	-14258
텡	-14259
튿	-14260
殺	-14261
潤	-14262
陶	-14263
将	-14264
止	-14265
냇	-14266
뽕	-14267
站	-14268
깬	-14269
ô	-14270
蓋	-14271
旅	-14272
翊	-14273
逸	-14274
巡	-14275
盤	-14276
횃	-14277
ジ	-14278
街	-14279
真	-14280
梵	-14281
ᅳ	-14282
殷	-14283
灣	-14284
웸	-14285
宿	-14286
晩	-14287
漏	-14288
キ	-14289
坡	-14290
存	-14291
編	-14292
脫	-14293
땡	-14294
춧	-14295
짤	-14296
楚	-14297
刊	-14298
ロ	-14299
엷	-14300
え	-14301
浮	-14302
긁	-14303
磨	-14304
ᅥ	-14305
텟	-14306
追	-14307
熊	-14308
症	-14309
웡	-14310
匡	-14311
歷	-14312
ê	-14313
構	-14314
힝	-14315
置	-14316
落	-14317
勇	-14318
奴	-14319
諦	-14320
鼎	-14321
댑	-14322
必	-14323
譯	-14324
꽉	-14325
ł	-14326
頼	-14327
깼	-14328
習	-14329
虛	-14330
配	-14331
ᄡ	-14332
亮	-14333
施	-14334
率	-14335
鐘	-14336
芳	-14337
폄	-14338
←	-14339
奏	-14340
幸	-14341
掌	-14342
け	-14343
磁	-14344
〜	-14345
嬪	-14346
켤	-14347
د	-14348
壤	-14349
活	-14350
米	-14351
露	-14352
펨	-14353
凉	-14354
毅	-14355
視	-14356
鹿	-14357
젼	-14358
쎄	-14359
鬼	-14360
뱉	-14361
背	-14362
疏	-14363
評	-14364
述	-14365
刀	-14366
坂	-14367
維	-14368
幕	-14369
勒	-14370
階	-14371
專	-14372
熱	-14373
織	-14374
教	-14375
碩	-14376
血	-14377
뻘	-14378
干	-14379
染	-14380
峯	-14381
爭	-14382
輝	-14383
휼	-14384
耳	-14385
差	-14386
찼	-14387
ب	-14388
標	-14389
稅	-14390
깍	-14391
솝	-14392
泳	-14393
랗	-14394
쏴	-14395
줍	-14396
챕	-14397
レ	-14398
喪	-14399
案	-14400
畿	-14401
移	-14402
貫	-14403
告	-14404
倫	-14405
墨	-14406
迦	-14407
帥	-14408
蘊	-14409
勤	-14410
害	-14411
午	-14412
揚	-14413
步	-14414
規	-14415
씽	-14416
青	-14417
ū	-14418
М	-14419
堅	-14420
コ	-14421
兪	-14422
∙	-14423
フ	-14424
渡	-14425
賊	-14426
関	-14427
導	-14428
袁	-14429
솅	-14430
▲	-14431
ニ	-14432
辭	-14433
候	-14434
壁	-14435
귈	-14436
冬	-14437
引	-14438
撰	-14439
耶	-14440
紋	-14441
脈	-14442
阮	-14443
숏	-14444
秘	-14445
墳	-14446
壬	-14447
綠	-14448
舜	-14449
賞	-14450
눗	-14451
っ	-14452
や	-14453
項	-14454
맙	-14455
坪	-14456
윳	-14457
オ	-14458
享	-14459
曾	-14460
決	-14461
潭	-14462
葬	-14463
錢	-14464
ш	-14465
奈	-14466
獄	-14467
照	-14468
ı	-14469
じ	-14470
伽	-14471
婦	-14472
模	-14473
顔	-14474
뷜	-14475
祚	-14476
羊	-14477
肉	-14478
찹	-14479
で	-14480
徽	-14481
뜩	-14482
뤽	-14483
睦	-14484
頂	-14485
愚	-14486
段	-14487
裝	-14488
援	-14489
豆	-14490
뎬	-14491
歲	-14492
貢	-14493
嗣	-14494
還	-14495
須	-14496
鳴	-14497
韻	-14498
꺽	-14499
撫	-14500
鼓	-14501
륀	-14502
弓	-14503
燈	-14504
請	-14505
篇	-14506
謝	-14507
魔	-14508
됭	-14509
빡	-14510
젱	-14511
匠	-14512
蹟	-14513
뎃	-14514
쌈	-14515
去	-14516
ć	-14517
Р	-14518
森	-14519
맴	-14520
蔚	-14521
讀	-14522
限	-14523
쩡	-14524
帖	-14525
庚	-14526
栗	-14527
伏	-14528
춥	-14529
庄	-14530
꿉	-14531
빴	-14532
授	-14533
輸	-14534
紹	-14535
В	-14536
眠	-14537
算	-14538
終	-14539
鴻	-14540
э	-14541
얏	-14542
φ	-14543
푀	-14544
妻	-14545
油	-14546
ц	-14547
符	-14548
豫	-14549
降	-14550
셍	-14551
ə	-14552
П	-14553
附	-14554
ã	-14555
壯	-14556
接	-14557
材	-14558
뢴	-14559
忍	-14560
胤	-14561
묀	-14562
破	-14563
쭤	-14564
劍	-14565
障	-14566
微	-14567
鬪	-14568
댜	-14569
浪	-14570
彩	-14571
テ	-14572
戱	-14573
む	-14574
ナ	-14575
沢	-14576
숯	-14577
흄	-14578
寒	-14579
給	-14580
ノ	-14581
査	-14582
헵	-14583
わ	-14584
芝	-14585
齡	-14586
잿	-14587
傅	-14588
番	-14589
ミ	-14590
喆	-14591
号	-14592
哀	-14593
酸	-14594
꿩	-14595
낵	-14596
놔	-14597
ウ	-14598
味	-14599
操	-14600
映	-14601
텁	-14602
函	-14603
廢	-14604
뷘	-14605
及	-14606
잰	-14607
退	-14608
튕	-14609
­	-14610
創	-14611
唱	-14612
淮	-14613
級	-14614
랸	-14615
ō	-14616
冊	-14617
收	-14618
談	-14619
逆	-14620
찜	-14621
卯	-14622
塚	-14623
놨	-14624
떴	-14625
経	-14626
仕	-14627
稷	-14628
陣	-14629
班	-14630
蔵	-14631
ャ	-14632
例	-14633
禧	-14634
ø	-14635
價	-14636
衍	-14637
굼	-14638
햐	-14639
宝	-14640
舌	-14641
諡	-14642
뽐	-14643
堤	-14644
牙	-14645
齒	-14646
뵤	-14647
숱	-14648
岸	-14649
湯	-14650
赫	-14651
Б	-14652
バ	-14653
亥	-14654
救	-14655
橫	-14656
董	-14657
優	-14658
包	-14659
쌌	-14660
탸	-14661
実	-14662
伐	-14663
惑	-14664
桃	-14665
著	-14666
閭	-14667
稱	-14668
菊	-14669
薛	-14670
땜	-14671
ᄎ	-14672
絶	-14673
舟	-14674
黎	-14675
뻣	-14676
巴	-14677
睿	-14678
샅	-14679
헹	-14680
佑	-14681
箕	-14682
徵	-14683
汗	-14684
蜀	-14685
讓	-14686
س	-14687
檀	-14688
瞋	-14689
έ	-14690
敵	-14691
融	-14692
좇	-14693
チ	-14694
換	-14695
郷	-14696
ت	-14697
エ	-14698
広	-14699
碧	-14700
驪	-14701
鹽	-14702
륄	-14703
펍	-14704
酉	-14705
볏	-14706
□	-14707
ょ	-14708
梨	-14709
サ	-14710
孤	-14711
展	-14712
幹	-14713
鍊	-14714
넋	-14715
녘	-14716
댔	-14717
ひ	-14718
幀	-14719
蕭	-14720
他	-14721
疑	-14722
貨	-14723
郵	-14724
뷸	-14725
ˈ	-14726
ː	-14727
祀	-14728
탉	-14729
唯	-14730
菴	-14731
Н	-14732
巳	-14733
ē	-14734
尺	-14735
鷄	-14736
쳇	-14737
헷	-14738
卓	-14739
屯	-14740
묄	-14741
攝	-14742
漁	-14743
雍	-14744
컹	-14745
─	-14746
万	-14747
밌	-14748
ィ	-14749
갬	-14750
腹	-14751
萊	-14752
쌔	-14753
æ	-14754
⟫	-14755
示	-14756
볜	-14757
י	-14758
་	-14759
め	-14760
븀	-14761
Đ	-14762
χ	-14763
了	-14764
潘	-14765
꿋	-14766
얗	-14767
И	-14768
탯	-14769
̊	-14770
便	-14771
審	-14772
旭	-14773
潮	-14774
爵	-14775
癡	-14776
⟪	-14777
寂	-14778
崖	-14779
婆	-14780
戊	-14781
跋	-14782
輿	-14783
썽	-14784
ば	-14785
尋	-14786
毘	-14787
片	-14788
莫	-14789
軌	-14790
遂	-14791
駐	-14792
놋	-14793
쟝	-14794
첵	-14795
グ	-14796
鎌	-14797
껌	-14798
냔	-14799
乃	-14800
彭	-14801
此	-14802
賦	-14803
巫	-14804
築	-14805
듦	-14806
뎠	-14807
짊	-14808
ư	-14809
乱	-14810
县	-14811
航	-14812
默	-14813
핥	-14814
俱	-14815
幡	-14816
朔	-14817
蔣	-14818
就	-14819
澄	-14820
癸	-14821
牟	-14822
楽	-14823
裁	-14824
除	-14825
옻	-14826
ع	-14827
凡	-14828
鎮	-14829
ュ	-14830
底	-14831
胎	-14832
禎	-14833
覆	-14834
輕	-14835
몯	-14836
앎	-14837
召	-14838
柴	-14839
줏	-14840
占	-14841
培	-14842
打	-14843
瀬	-14844
炭	-14845
砲	-14846
셤	-14847
ه	-14848
〕	-14849
ろ	-14850
ズ	-14851
尚	-14852
戌	-14853
折	-14854
泥	-14855
杉	-14856
衙	-14857
챗	-14858
諱	-14859
갭	-14860
丈	-14861
愍	-14862
慢	-14863
競	-14864
覽	-14865
停	-14866
牌	-14867
着	-14868
똘	-14869
ガ	-14870
プ	-14871
ム	-14872
討	-14873
遷	-14874
丑	-14875
券	-14876
整	-14877
祝	-14878
稿	-14879
抄	-14880
拳	-14881
殊	-14882
濬	-14883
〔	-14884
態	-14885
덫	-14886
췬	-14887
า	-14888
測	-14889
ή	-14890
擊	-14891
괭	-14892
哈	-14893
枝	-14894
禍	-14895
仇	-14896
蟲	-14897
냑	-14898
抗	-14899
被	-14900
複	-14901
귓	-14902
Г	-14903
ハ	-14904
括	-14905
駿	-14906
쁠	-14907
ë	-14908
ж	-14909
メ	-14910
范	-14911
災	-14912
笠	-14913
モ	-14914
戴	-14915
乳	-14916
强	-14917
早	-14918
核	-14919
宙	-14920
겜	-14921
툇	-14922
佳	-14923
権	-14924
短	-14925
ی	-14926
側	-14927
槃	-14928
苑	-14929
傑	-14930
桐	-14931
藍	-14932
앴	-14933
휜	-14934
待	-14935
淡	-14936
漆	-14937
炯	-14938
為	-14939
綜	-14940
ブ	-14941
店	-14942
奥	-14943
庸	-14944
拓	-14945
炎	-14946
욧	-14947
Д	-14948
Т	-14949
坤	-14950
嫡	-14951
胞	-14952
菜	-14953
賈	-14954
勅	-14955
彫	-14956
悲	-14957
朗	-14958
梧	-14959
沃	-14960
鼻	-14961
ύ	-14962
浜	-14963
応	-14964
敍	-14965
曉	-14966
槐	-14967
泗	-14968
答	-14969
꾹	-14970
젭	-14971
č	-14972
婚	-14973
彈	-14974
肖	-14975
荷	-14976
伝	-14977
筵	-14978
虞	-14979
各	-14980
突	-14981
訴	-14982
넜	-14983
云	-14984
係	-14985
按	-14986
額	-14987
눴	-14988
せ	-14989
升	-14990
忽	-14991
ă	-14992
捨	-14993
昧	-14994
幼	-14995
彰	-14996
쿱	-14997
来	-14998
註	-14999
豪	-15000
投	-15001
探	-15002
濃	-15003
氷	-15004
筋	-15005
艦	-15006
費	-15007
デ	-15008
呼	-15009
毒	-15010
Ö	-15011
呪	-15012
寛	-15013
溝	-15014
総	-15015
謹	-15016
隋	-15017
Λ	-15018
ו	-15019
伴	-15020
涅	-15021
穀	-15022
飯	-15023
윕	-15024
쨩	-15025
訪	-15026
Α	-15027
ᄯ	-15028
渾	-15029
犯	-15030
닳	-15031
ふ	-15032
卜	-15033
履	-15034
效	-15035
昊	-15036
튤	-15037
폿	-15038
О	-15039
余	-15040
沖	-15041
å	-15042
耕	-15043
荒	-15044
魂	-15045
ゃ	-15046
供	-15047
勿	-15048
賣	-15049
눙	-15050
ᅩ	-15051
拜	-15052
沼	-15053
荊	-15054
走	-15055
辨	-15056
雷	-15057
ᆺ	-15058
∞	-15059
遇	-15060
遍	-15061
텨	-15062
悟	-15063
采	-15064
ゆ	-15065
暴	-15066
矢	-15067
깟	-15068
뉠	-15069
뺄	-15070
Π	-15071
ど	-15072
仰	-15073
又	-15074
奭	-15075
盡	-15076
肥	-15077
亡	-15078
卑	-15079
卒	-15080
幽	-15081
禦	-15082
穴	-15083
強	-15084
更	-15085
숴	-15086
ツ	-15087
幢	-15088
晴	-15089
浙	-15090
耆	-15091
뵐	-15092
垂	-15093
砂	-15094
鈴	-15095
頌	-15096
姫	-15097
樣	-15098
跡	-15099
閑	-15100
⋅	-15101
急	-15102
悅	-15103
満	-15104
黄	-15105
そ	-15106
兆	-15107
塘	-15108
馮	-15109
궂	-15110
儉	-15111
晶	-15112
皆	-15113
賴	-15114
ᅡ	-15115
쭝	-15116
Σ	-15117
床	-15118
綾	-15119
蕃	-15120
ダ	-15121
網	-15122
驗	-15123
헉	-15124
Á	-15125
ה	-15126
ᄐ	-15127
パ	-15128
企	-15129
招	-15130
菌	-15131
低	-15132
壺	-15133
席	-15134
憂	-15135
暗	-15136
甁	-15137
租	-15138
絲	-15139
훠	-15140
ず	-15141
付	-15142
卽	-15143
寄	-15144
遞	-15145
鉢	-15146
긱	-15147
껀	-15148
듄	-15149
ぶ	-15150
免	-15151
杖	-15152
束	-15153
粉	-15154
謀	-15155
몐	-15156
섣	-15157
א	-15158
々	-15159
ビ	-15160
冷	-15161
含	-15162
往	-15163
擇	-15164
熟	-15165
瓦	-15166
迎	-15167
Л	-15168
息	-15169
攻	-15170
黒	-15171
넝	-15172
왑	-15173
扈	-15174
ר	-15175
亦	-15176
壓	-15177
彬	-15178
뚤	-15179
珪	-15180
窟	-15181
聚	-15182
認	-15183
阪	-15184
ð	-15185
ᆮ	-15186
塾	-15187
播	-15188
鄧	-15189
陜	-15190
ح	-15191
堀	-15192
昆	-15193
薰	-15194
ş	-15195
党	-15196
宴	-15197
洗	-15198
浚	-15199
륌	-15200
콸	-15201
ŋ	-15202
♭	-15203
敢	-15204
筑	-15205
鏞	-15206
뷴	-15207
庾	-15208
忘	-15209
ï	-15210
倍	-15211
堯	-15212
獸	-15213
뭘	-15214
솽	-15215
쥰	-15216
█	-15217
只	-15218
宏	-15219
懸	-15220
ョ	-15221
灘	-15222
疾	-15223
矣	-15224
ร	-15225
屠	-15226
舒	-15227
買	-15228
軸	-15229
陟	-15230
【	-15231
】	-15232
億	-15233
劑	-15234
排	-15235
負	-15236
빤	-15237
팠	-15238
ق	-15239
东	-15240
索	-15241
豐	-15242
僞	-15243
燦	-15244
眉	-15245
蒲	-15246
観	-15247
겅	-15248
늉	-15249
돤	-15250
숟	-15251
팹	-15252
힛	-15253
圈	-15254
渠	-15255
体	-15256
損	-15257
犬	-15258
쳅	-15259
↔	-15260
ワ	-15261
傷	-15262
充	-15263
짬	-15264
垣	-15265
璋	-15266
衝	-15267
鷹	-15268
蜜	-15269
險	-15270
偏	-15271
奮	-15272
숑	-15273
ù	-15274
†	-15275
慰	-15276
縛	-15277
諭	-15278
頃	-15279
뗏	-15280
믐	-15281
벰	-15282
셩	-15283
倒	-15284
喬	-15285
已	-15286
戚	-15287
芸	-15288
適	-15289
껄	-15290
욥	-15291
톳	-15292
ج	-15293
น	-15294
乞	-15295
揮	-15296
桑	-15297
緖	-15298
頓	-15299
顧	-15300
ơ	-15301
ف	-15302
セ	-15303
参	-15304
戎	-15305
謨	-15306
ᄏ	-15307
糖	-15308
緯	-15309
鎔	-15310
混	-15311
뗀	-15312
拉	-15313
詳	-15314
飮	-15315
뀜	-15316
ة	-15317
冥	-15318
姚	-15319
押	-15320
柔	-15321
线	-15322
銃	-15323
駕	-15324
뻑	-15325
Å	-15326
ヶ	-15327
膜	-15328
뎁	-15329
셧	-15330
쏙	-15331
쪄	-15332
び	-15333
暦	-15334
涉	-15335
篆	-15336
綿	-15337
긔	-15338
닻	-15339
Κ	-15340
ケ	-15341
寇	-15342
幾	-15343
扇	-15344
綏	-15345
鉄	-15346
阜	-15347
쬐	-15348
横	-15349
沒	-15350
録	-15351
챘	-15352
푈	-15353
潛	-15354
畠	-15355
練	-15356
羲	-15357
課	-15358
迪	-15359
雀	-15360
髮	-15361
텼	-15362
ò	-15363
姑	-15364
蔭	-15365
迷	-15366
鑛	-15367
끽	-15368
맣	-15369
쳉	-15370
켠	-15371
î	-15372
対	-15373
架	-15374
詔	-15375
씰	-15376
悌	-15377
游	-15378
諺	-15379
꼿	-15380
ю	-15381
似	-15382
灰	-15383
笑	-15384
筒	-15385
辦	-15386
韋	-15387
쫄	-15388
Ω	-15389
乎	-15390
떳	-15391
왐	-15392
ś	-15393
偉	-15394
怪	-15395
湘	-15396
瞻	-15397
괵	-15398
묽	-15399
ェ	-15400
伸	-15401
掛	-15402
浅	-15403
爐	-15404
瑜	-15405
갉	-15406
냘	-15407
햅	-15408
Φ	-15409
亀	-15410
旦	-15411
왠	-15412
嶽	-15413
灌	-15414
窯	-15415
镇	-15416
ý	-15417
Х	-15418
्	-15419
賤	-15420
쉔	-15421
쳄	-15422
耽	-15423
鑄	-15424
ボ	-15425
捕	-15426
荀	-15427
Š	-15428
ね	-15429
广	-15430
蒼	-15431
裏	-15432
껫	-15433
晦	-15434
澈	-15435
禄	-15436
襲	-15437
訥	-15438
ほ	-15439
互	-15440
債	-15441
沿	-15442
燒	-15443
蛇	-15444
違	-15445
쥴	-15446
吹	-15447
屛	-15448
療	-15449
盜	-15450
箭	-15451
郁	-15452
꿍	-15453
値	-15454
悼	-15455
斎	-15456
斬	-15457
隣	-15458
뺑	-15459
챤	-15460
娘	-15461
循	-15462
怡	-15463
纂	-15464
雕	-15465
顕	-15466
減	-15467
甄	-15468
絃	-15469
げ	-15470
勸	-15471
樑	-15472
狂	-15473
訟	-15474
貝	-15475
ế	-15476
借	-15477
冀	-15478
割	-15479
忌	-15480
歐	-15481
溟	-15482
誤	-15483
ě	-15484
ش	-15485
哉	-15486
帽	-15487
従	-15488
斜	-15489
樊	-15490
橘	-15491
趣	-15492
円	-15493
吐	-15494
敷	-15495
蘆	-15496
웩	-15497
ž	-15498
栢	-15499
看	-15500
翔	-15501
讚	-15502
霞	-15503
塵	-15504
琉	-15505
覇	-15506
託	-15507
闕	-15508
ᠠ	-15509
変	-15510
寿	-15511
斥	-15512
渓	-15513
研	-15514
腦	-15515
避	-15516
넹	-15517
휨	-15518
ń	-15519
刹	-15520
劃	-15521
幻	-15522
廊	-15523
旋	-15524
檜	-15525
繫	-15526
聽	-15527
쭐	-15528
Ε	-15529
ա	-15530
ネ	-15531
帳	-15532
慮	-15533
曜	-15534
柏	-15535
煙	-15536
狄	-15537
猛	-15538
畫	-15539
礙	-15540
믄	-15541
샥	-15542
ʼ	-15543
ᄭ	-15544
♪	-15545
哥	-15546
峻	-15547
徹	-15548
斤	-15549
析	-15550
榜	-15551
珉	-15552
譚	-15553
빻	-15554
У	-15555
र	-15556
勉	-15557
燁	-15558
狼	-15559
皐	-15560
翠	-15561
遮	-15562
꽈	-15563
땔	-15564
뭍	-15565
ё	-15566
≤	-15567
伺	-15568
剌	-15569
卵	-15570
屈	-15571
揆	-15572
琳	-15573
綬	-15574
탰	-15575
أ	-15576
堡	-15577
婢	-15578
弁	-15579
뗄	-15580
짰	-15581
Ü	-15582
і	-15583
ệ	-15584
ベ	-15585
圃	-15586
幣	-15587
或	-15588
朋	-15589
漫	-15590
獅	-15591
窩	-15592
脂	-15593
預	-15594
갛	-15595
켁	-15596
톄	-15597
튈	-15598
ф	-15599
邸	-15600
飾	-15601
駒	-15602
鵬	-15603
넸	-15604
ì	-15605
ל	-15606
ᄑ	-15607
ヤ	-15608
僖	-15609
湛	-15610
猶	-15611
繁	-15612
訣	-15613
説	-15614
貿	-15615
횔	-15616
َ	-15617
塞	-15618
恵	-15619
脚	-15620
裴	-15621
謂	-15622
씁	-15623
へ	-15624
個	-15625
寵	-15626
巾	-15627
恐	-15628
旣	-15629
旺	-15630
杓	-15631
汀	-15632
烽	-15633
祈	-15634
膺	-15635
ğ	-15636
凶	-15637
叢	-15638
婁	-15639
晟	-15640
画	-15641
畢	-15642
確	-15643
稽	-15644
誘	-15645
週	-15646
遣	-15647
零	-15648
츤	-15649
ァ	-15650
凝	-15651
媛	-15652
抱	-15653
薄	-15654
칡	-15655
危	-15656
岑	-15657
擬	-15658
栄	-15659
璿	-15660
瓊	-15661
翟	-15662
腸	-15663
铁	-15664
®	-15665
弐	-15666
札	-15667
杏	-15668
涼	-15669
炫	-15670
遵	-15671
鐸	-15672
馨	-15673
ɪ	-15674
ψ	-15675
ソ	-15676
卦	-15677
睡	-15678
祉	-15679
窮	-15680
縱	-15681
邵	-15682
鳩	-15683
ك	-15684
廻	-15685
当	-15686
杞	-15687
욀	-15688
§	-15689
Ф	-15690
ご	-15691
ゅ	-15692
昔	-15693
聰	-15694
裂	-15695
閉	-15696
鴨	-15697
튄	-15698
図	-15699
渤	-15700
肇	-15701
肩	-15702
詠	-15703
趾	-15704
酵	-15705
鎖	-15706
뒬	-15707
挺	-15708
杭	-15709
醴	-15710
퉈	-15711
ב	-15712
ก	-15713
อ	-15714
ピ	-15715
串	-15716
伎	-15717
患	-15718
戀	-15719
禿	-15720
藻	-15721
衰	-15722
衿	-15723
閤	-15724
웽	-15725
쫑	-15726
쯩	-15727
켕	-15728
ξ	-15729
Ч	-15730
ᆨ	-15731
与	-15732
予	-15733
尤	-15734
廬	-15735
弥	-15736
快	-15737
敞	-15738
渭	-15739
熹	-15740
礪	-15741
陝	-15742
龐	-15743
쩨	-15744
Μ	-15745
ъ	-15746
拾	-15747
盆	-15748
票	-15749
퀜	-15750
מ	-15751
拔	-15752
棋	-15753
液	-15754
萱	-15755
閻	-15756
섐	-15757
틔	-15758
З	-15759
滋	-15760
珥	-15761
畜	-15762
祗	-15763
됴	-15764
윰	-15765
ा	-15766
ạ	-15767
勃	-15768
妄	-15769
採	-15770
歡	-15771
湜	-15772
秩	-15773
粹	-15774
辯	-15775
辺	-15776
需	-15777
깽	-15778
녓	-15779
Č	-15780
圍	-15781
彼	-15782
每	-15783
狗	-15784
盈	-15785
篤	-15786
遲	-15787
隅	-15788
뢸	-15789
솁	-15790
좨	-15791
ᅴ	-15792
ḥ	-15793
べ	-15794
否	-15795
殘	-15796
漸	-15797
糧	-15798
脩	-15799
逢	-15800
遜	-15801
隸	-15802
잽	-15803
퓔	-15804
壞	-15805
弗	-15806
怒	-15807
殉	-15808
竿	-15809
脣	-15810
響	-15811
뜀	-15812
빳	-15813
찧	-15814
ʻ	-15815
ṣ	-15816
ぎ	-15817
奧	-15818
妓	-15819
柄	-15820
濱	-15821
ز	-15822
เ	-15823
什	-15824
凰	-15825
叉	-15826
夕	-15827
羌	-15828
詮	-15829
謁	-15830
輯	-15831
쐈	-15832
퓸	-15833
冶	-15834
吸	-15835
嘗	-15836
峙	-15837
恪	-15838
楠	-15839
瀛	-15840
爆	-15841
猿	-15842
畏	-15843
荘	-15844
誓	-15845
誦	-15846
ゴ	-15847
ヒ	-15848
捷	-15849
曼	-15850
棺	-15851
溶	-15852
燧	-15853
硬	-15854
禅	-15855
纏	-15856
謠	-15857
鈞	-15858
틋	-15859
Γ	-15860
ง	-15861
厭	-15862
峽	-15863
弱	-15864
悔	-15865
棟	-15866
沛	-15867
溥	-15868
멎	-15869
죤	-15870
崗	-15871
敗	-15872
瑩	-15873
竺	-15874
醉	-15875
鋼	-15876
黔	-15877
밉	-15878
윷	-15879
ζ	-15880
到	-15881
団	-15882
様	-15883
皓	-15884
祇	-15885
褒	-15886
鄒	-15887
針	-15888
阳	-15889
倂	-15890
妾	-15891
媒	-15892
恋	-15893
牒	-15894
ɛ	-15895
Ο	-15896
ม	-15897
ぐ	-15898
ポ	-15899
塩	-15900
妖	-15901
椿	-15902
楞	-15903
気	-15904
獲	-15905
繡	-15906
苗	-15907
貸	-15908
쾅	-15909
đ	-15910
Ц	-15911
你	-15912
崩	-15913
楷	-15914
猫	-15915
績	-15916
臥	-15917
虹	-15918
솀	-15919
훑	-15920
ั	-15921
ᅮ	-15922
„	-15923
憩	-15924
稲	-15925
霊	-15926
뵙	-15927
빕	-15928
잴	-15929
Е	-15930
増	-15931
巢	-15932
據	-15933
璽	-15934
籠	-15935
詹	-15936
鞠	-15937
뼛	-15938
‚	-15939
坦	-15940
寸	-15941
桜	-15942
滑	-15943
澗	-15944
疫	-15945
苻	-15946
覚	-15947
閱	-15948
龙	-15949
华	-15950
场	-15951
恨	-15952
棲	-15953
滉	-15954
甚	-15955
竟	-15956
軾	-15957
驅	-15958
뵘	-15959
뻤	-15960
償	-15961
凌	-15962
勘	-15963
塊	-15964
拘	-15965
沆	-15966
涵	-15967
瑛	-15968
窓	-15969
責	-15970
ṭ	-15971
ễ	-15972
僚	-15973
兢	-15974
批	-15975
曇	-15976
済	-15977
电	-15978
痛	-15979
銓	-15980
雖	-15981
駅	-15982
녠	-15983
ώ	-15984
ܐ	-15985
暉	-15986
焉	-15987
臧	-15988
誕	-15989
釉	-15990
섕	-15991
쉥	-15992
ę	-15993
ү	-15994
ө	-15995
‰	-15996
ざ	-15997
倻	-15998
崙	-15999
